#version: 0.2 - Trained by `huggingface/tokenizers`
Ġ Ġ
ĠĠ ĠĠ
t h
Ġ a
Ġ s
Ġ i
t e
r e
o n
m e
e l
Ġ f
o r
a l
t i
d e
Ġ c
th e
Ġ re
Ġ the
ĠĠĠĠ ĠĠĠĠ
n t
Ġ (
Ġ )
i n
Ġs el
Ġsel f
Ġa n
r g
Ġ .
Ġ w
t u
Ġ ,
u e
s e
Ġ t
s t
l e
Ġa rg
me nt
a r
Ġw i
Ġ :
Ġwi th
ti on
u n
Ġ de
v al
Ġ =
u ment
l a
Ġ e
Ġi s
Ġarg ument
c e
Ġf or
Ġ n
Ġ '
a n
o d
Ġi f
Ġ o
m p
Ġde f
val ue
r n
Ġan d
Ġt o
tu rn
Ġre turn
Ġ d
in g
e r
un c
k e
Ġ value
u l
Ġi n
t r
Ġs u
te r
e t
Ġ b
s s
ul t
Ġre s
Ġ p
a t
Ġsu b
Ġ me
_ _
Ġf unc
Ġc al
th od
l i
Ġme thod
Ġo f
x t
p e
a me
s ti
r o
Ġsub sti
Ġsubsti tu
te xt
Ġsubstitu te
Ġcal l
Ġres ult
Ġn o
in e
ĠĠĠĠĠĠĠĠ Ġ
r or
Ġargument s
Ġc on
on e
Ġfunc tion
Ġ N
Ġs tr
c t
Ġ T
i l
Ġ m
i t
ĠĠĠĠ Ġ
la ss
Ġstr ing
ĠN one
r ror
t a
Ġe x
a te
Ġdef ine
o de
il ter
Ġno t
Ġc lass
ro m
ĠĠĠĠĠĠĠĠ ĠĠĠĠĠ
g et
l o
Ġs et
e s
Ġf rom
Ġt r
u t
a rg
E rror
i d
ke n
Ġ "
Ġ el
Ġd i
c on
Ġ 2
la te
n d
or t
li st
Ġ u
v er
mp late
ar y
ce p
t y
Ġ [
Ġ ]
p a
ke y
Ġ __
de r
mp ort
Ġn ame
v e
i le
Ġi mport
v ar
Ġ un
Ġ key
arg s
i se
c h
i el
iel d
n ame
c a
Ġex cep
r a
an g
Ġto ken
Ġ _
k w
a g
e ct
o o
c tion
j ang
jang o
u r
f e
a fe
Ġ list
j ect
n g
st an
le an
Ġp ar
Ġ %
ction ary
Ġdi ctionary
i st
Ġ get
a se
Ġ ra
st r
b le
Ġ F
ĠT r
al se
e ment
c ode
Ġ h
f ilter
Ġi t
Ġel ement
Ġc o
Ġi nt
te mplate
Ġra ise
t o
ĠTr ue
Ġa p
stan ce
kw args
Ġd jango
a ult
oo lean
Ġ le
Ġ V
Ġcon text
Ġb oolean
mp ty
ca pe
i g
at or
Ġ var
c k
Ġtr y
ĠĠĠĠĠĠĠĠ ĠĠĠĠĠĠĠĠĠ
i s
ĠĠ Ġ
Ġf ilter
od el
val id
s afe
o l
at a
Ġb it
Ġint o
Ġdef ault
Ġexcep tion
Ġa s
Ġ 1
or m
Ġde c
Ġ or
d i
Ġarg s
ar t
Ġe mpty
a m
Ġ kwargs
a x
t tr
ĠF alse
Ġo b
e x
b u
r i
an d
ta g
a ble
Ġ' %
Ġfor m
ti l
pe nd
o es
od u
Ġb ase
Ġtr ue
str ing
odu le
Ġap pend
Ġ 3
se r
f unc
f orm
g er
pa ce
' ,
a s
te ger
Ġre g
con text
in it
h t
p ut
c o
te nt
Ġa ttr
Ġin stance
Ġin teger
ti me
i x
Ġn e
p la
I n
is ter
p er
ol ve
e mplate
Ġp a
Ġ lo
pla ce
Ġc h
q u
Ġreg ister
i able
ate d
odel ist
n o
q ue
p on
ng th
Ġ *
Ġc a
a d
re nt
A R
Ġsub ject
Ġbit s
li b
pon se
the r
e d
mp ile
til s
Ġdec or
u g
T E
Ġw h
Ġ template
Ġno de
. _
Ġ @
u p
Ġb y
Ġdecor ator
Ġel se
te d
Ġs pace
i r
E N
ss ag
ĠV al
Ġo ther
n der
c ke
ti ng
Ġ 0
Ġun pa
Ġun der
Ġre place
m odule
Ġu se
Ġs t
i bu
ibu te
ty pe
cke d
o ur
Ġ D
Ġunpa cked
Ġ th
ver y
ĠT emplate
Ġe very
E x
Ġ la
Ġf ield
our ce
Ġexcep t
Ġu p
at ch
ut oes
utoes cape
ch e
ug ht
Ġt ag
z e
Ġca ught
Ġob ject
te m
Ġ S
Ġcon ver
ur rent
Ġp ro
m m
ir st
Ġfor ce
a der
Ġ C
Ġcon ta
t p
e nd
Ġres olve
form at
e n
l ine
ĠĠĠĠĠĠĠĠ ĠĠĠĠĠĠĠĠĠĠĠĠĠ
er ror
Ġco mpile
at tr
di ct
re s
c al
" ,
le d
am s
Ġelement s
p le
Ġle ngth
f ield
Ġf ile
a ke
o in
ar iable
Ġd ata
I N
on text
te s
S T
Ġc urrent
' .
an no
Ġc re
y nt
ynt ax
st art
yntax Error
S yntaxError
ĠTemplate SyntaxError
qu al
ig n
Ġe rror
Ġset ting
y pe
Ġ g
a tion
> <
Ġf irst
ri ve
p ar
Ġstring filter
ta tion
i on
Ġde rive
Ġe qual
p re
r ary
u m
st a
pe c
Ġsetting s
anno tation
func tion
Ġpar se
ti al
tu ple
se t
Ġo ut
Ġpa th
Ġs e
mm and
O R
Ġh as
in stance
Ġ 4
i ze
t tp
to ken
p li
c lass
c od
cod ing
Ġ B
Ġ +
w ise
Ġe n
Ġreplace d
N ode
Ġn odelist
Ġs ix
Ġcon tent
Ġob j
tag s
Ġm atch
p y
Ġother wise
e ader
Ġre nder
F ield
o p
ĠD e
Ġattr ibute
Ġout put
o i
ue Error
ĠVal ueError
que st
Ġwi d
i tial
v i
Ġne w
ĠV ariable
Ġ In
T A
ar k
Ġle n
Ġt ake
R es
Ġ tuple
Ġ H
s g
Ġcal led
Ġm ark
s cape
b a
de x
pli t
Ġ* *
Ġe nd
Ġa utoescape
Ġpar ams
me ssag
ce ss
oi ce
Ġu r
o st
Ġ M
m a
o t
Ġ j
re am
m al
con tent
cep tion
Ġdi ct
r y
m o
Ġst art
Ġwid get
R e
it s
Res ponse
S E
Ġth an
d ate
Ġpar ser
b el
Ġch ar
u tils
Ġ valid
Ġ lib
a c
Ġu tils
a p
ine d
e re
i tem
cess or
Ġ {
Ġtake s
Ġwh ere
k i
L E
i f
Ġis instance
Ġconver t
Ġ }
ttp Response
Ġ U
Ġ line
sta nt
A T
de c
con f
ĠT ype
d d
Ġap p
Ġ A
d ata
ĠType Error
Ex ception
lo ck
f ix
ig in
Ġres ponse
% (
n odelist
o ut
i mal
o b
cessor s
Ġform at
ĠĠĠĠĠĠĠĠ ĠĠĠĠĠĠĠĠ
Ġm sg
ĠH ttpResponse
Ġin itial
Ġe scape
s ource
Ġ' '
Ġp re
Ġ -
Ġd o
Ġresolve d
n s
Ġ y
n e
Ġur l
Ġf alse
Ġex ist
se d
Ġa dd
Ġ time
re d
Ġconta ined
Ġm odule
Ġj oin
Ġ r
. '
Ġs ource
Ġup to
oo ki
pa th
Ġdefault s
c re
A TE
D ata
v el
Ġcre ated
O K
u st
ĠĠĠĠ ĠĠ
f ile
module s
Ġ= =
re a
con d
Ġla st
ĠN ode
m l
TA G
Ġexist s
Ġby tes
Ġre quest
\ \
Ġd ate
m ax
Ġc ode
bu g
un d
ba ck
Ġsu per
Ġconta in
A L
ter al
Ġ' _
Ġattr s
ss ion
Ġs ta
ap p
Ġo p
li teral
i code
b er
ĠC ontext
um ber
messag es
le n
O N
mo ve
Ġme ssag
le r
IN G
Ġf la
k up
EN T
N ot
o kup
Ġco mmand
1 0
un til
0 0
te rn
u s
i p
Ġwh ile
pre ssion
ĠB ase
n ode
b y
Ġdi g
Ġchar ac
Ġcharac ter
h and
Ġm ax
ag e
ma in
o und
i ter
Ġ v
L O
ĠDe bug
m it
Ġs plit
Ġen coding
Ġ I
ation Error
Ġa l
ti vel
tivel y
Ġres pec
te nd
Ġrespec tively
tion s
Ġ Exception
d jango
w er
id ationError
Ġb e
Ġconver ted
e ar
M P
ĠVal idationError
p ro
Ġd el
Ġ L
i b
Ġex p
ĠT OK
ĠTOK EN
es cape
la bel
t z
P ar
Par ser
Ġa re
A B
a ve
field s
l y
Ġmessag e
Ġ" '
M ENT
in valid
Ġequal s
R E
oice s
res olve
h eader
ul ti
. __
s u
Ġse cond
lo ad
Ġin put
dict s
ob j
Ġin dex
Ġget attr
oin ter
Ġcontain ing
Ġvar args
Ġvar kw
Ġst ream
L ATE
MP LATE
che ck
re ss
Ġ <
Ġs afe
lo w
ĠĠĠĠĠĠĠĠ ĠĠĠĠĠĠĠĠĠĠĠĠĠĠĠĠĠ
a utoescape
at tern
E n
C ontext
ttr ibute
d a
Ġel if
Ġdict s
Ġcon stant
ib rary
c l
D i
th ing
Ġex tend
Ġd oes
Di ct
ĠA ttribute
ĠAttribute Error
get text
V al
Ġup date
dec or
Ġ on
Ġcre ate
decor ated
AR T
lo cal
ĠIn valid
ar n
Ġm ust
or d
ST ART
( ?
Ġm odel
Ġor igin
C K
Ġno thing
ĠS afe
th on
li mit
AB LE
Ġne xt
s pace
de n
de d
ate s
que ry
ĠSafe Data
an s
il ti
Ġh eader
LO CK
ĠĠĠĠĠĠĠĠ ĠĠĠĠĠĠ
Ġ Re
AT OR
I D
qu i
ex pression
Ġlo wer
O M
Ġerror s
Ġi ter
le ngth
oes Not
Ex ist
oesNot Exist
ĠU n
Ġop tions
mp le
D oesNotExist
Ġ kw
ss ign
Ġkw arg
. "
I ABLE
E R
Ġdig its
d o
ro up
Ġin cre
Ġa t
id get
Ġlo okup
g s
AR IABLE
Ġvalid ate
b s
OM MENT
c imal
g ex
Ġre move
Ġe val
re ct
p r
Ġ text
id den
Ġp o
I F
tu s
co mpile
m b
ator s
Ġ x
en coding
ĠDe cimal
Ġeval u
Ġ% (
Ġpa ss
V AL
Ġ 5
' "
lib rary
Ġpro vi
y s
c lo
pro cessors
L ist
un k
e te
ST R
STR ING
Ġ k
Ġfla gs
Ġdoes nt
Ġn umber
el p
Ġ' \
ad d
f or
T emplate
in d
Ġlo cal
on th
a re
Ġ E
de f
ca tion
ooki e
re nder
tr a
by tes
Ġ+ =
Ġcontent s
co mmand
ht ml
Ġpro cessors
ilti ns
er i
e w
di r
Ġhas attr
ex er
Ġp op
Ġ ver
par ams
qui red
IN VAL
INVAL ID
arn ing
me ta
ĠV ARIABLE
var iable
ch ar
Ġs ign
Ġco py
R A
In put
Ġ"' %
per ty
Ġc lean
Ġtemplate tags
query set
Ġla mb
Ġlamb da
Ġb lock
ta ble
attr s
P AR
SE PAR
SEPAR ATOR
Ġp attern
Ġsta tus
tu re
conf ig
Ġh ost
C E
K e
Ke y
Ġre ver
ed s
re ad
Ġincre ment
EN D
Ġdate time
D E
Ġal l
Ġpar am
la ble
Ġdo main
Ġpro perty
vi ew
! =
Ġ !=
z y
m odel
n ce
Ġfilter s
b lock
O U
c ate
ĠVariable DoesNotExist
o ken
local time
py thon
u se
ul d
Ġp k
Ġsub list
Ġg rea
Ġgrea ter
Ġstart s
def ault
Ġevalu ates
i ed
ar d
Ġs ys
Ġo s
ooki es
t s
Ġstr ip
cal l
s ser
w i
Ġle sser
Ġ" %
Ġla bel
ĠT oken
con stant
Ġi d
1 8
ra p
Ġexception s
Ġ >
co py
id ator
Val idator
Ġb u
Ġa ssign
st ream
Ġvalue s
Ġse par
wi th
m atch
Ġch unk
pre fix
d ig
rea k
su b
Ġprovi ded
Ġt ype
Ġ' <
e mpty
Ġco l
re pr
Ġg en
(? :
Ġth is
di rect
Ġ' ,
value s
pe n
la zy
i ve
Ġe nt
messag e
d el
Ġnode s
Ġfield s
Ġh t
s plit
Ġformat s
cl u
" '
form s
tion al
Ġtag lib
o re
in f
ca che
ur l
Ġ val
header s
n um
u table
u re
Ġy ield
Ġline s
ol ver
che me
e xt
y le
st yle
ne ction
Ġun hand
ĠF I
Ġunhand led
clu de
r f
L ibrary
a il
0 4
s rf
re nce
s ize
d ard
stan dard
content s
ti m
ba tim
ser t
ĠĠĠĠĠĠĠĠĠĠĠĠĠĠĠĠ ĠĠ
M E
O r
i me
ch oices
Ġin valid
Ġun icode
pec ted
Ġcal lable
Ġ1 0
ound ary
template tags
Ġtr ans
Ġtag s
ĠĠĠĠ ĠĠĠ
ti tem
Ġht ml
hand ler
i z
i que
ĠUn icode
i res
o m
Ġ P
ĠT E
w idget
w ord
B U
Ġd up
li cate
Ġdup licate
b ase
p art
in itial
a y
add ress
ĠBase Context
Ġp ointer
Ġpre fix
z one
al ize
Ġs o
re gex
Ġlib rary
ri te
o ver
f rom
i mple
ĠTE MPLATE
Ġh ave
Ġca che
Ġf k
ĠĠĠĠĠĠĠĠ ĠĠĠĠĠĠĠĠĠĠĠĠĠĠĠĠĠĠĠĠĠ
ĠB LOCK
Ġne eds
p ointer
file s
] *
TE MPLATE
la s
Ġch oices
ip v
dig its
o us
V ariable
j s
Q ue
' ",
Ġh elp
b it
el ect
T I
x er
Ġle xer
Ġlocal ize
Ġu gettext
ĠNode List
il d
F OR
Ġ Key
par se
Ġfla t
Que ry
lo at
Ġ one
Ġy ear
Query Dict
g e
Ġi tem
Ġcon di
Or igin
u nt
Ġlo op
Template Library
Ġa bs
Ġdec imal
Ġreg ex
O per
Ġ QueryDict
ĠInvalid TemplateLibrary
ĠKey Error
Ġcon nection
Ġsepar ated
do c
b o
el per
ca se
Ġpa rent
ob ject
Ġ ro
Ġt arg
ĠIn dex
Ġtarg et
ĠIndex Error
w are
Ġdel ete
N O
arg ument
ma il
l s
l ug
filter s
s ion
li ze
code Error
Oper ation
Ġrever sed
In valid
unc ate
ri de
a ti
ur i
over ride
Ġtr uncate
Ġm onth
Ġnode type
ĠĠĠĠĠĠĠĠ ĠĠ
f u
val s
name d
Ġen code
Ġpo s
error s
ta in
Ġexp ires
str u
En ter
F orm
\ .
c ur
p ing
Ġname space
and ler
h o
> '
clo se
Ġco mm
p k
e ck
ĠInvalid Operation
Ġstream ing
E D
Ġf ind
Ġre ce
Ġre named
Ġt a
Ġne g
TE R
Ġ' .'
char s
ut o
t le
ti tle
Ġvar iable
co unt
Ġi ri
vi ous
ne w
ĠL ibrary
Ġm in
Ġurl conf
T h
Ġp format
C o
g roup
p ort
lo okup
6 4
me n
se p
ĠC OMMENT
h as
Ġex tra
fu ture
f irst
se s
Ġg roup
Ġstring s
scape Data
ĠE scapeData
las ses
Ġpre vious
literal s
ĠM ulti
C on
Q U
d le
id dle
Ġend s
iddle ware
C OMMENT
type s
men ted
Ġh ttp
FOR M
Ġ( ?
in dex
er ver
0 1
u te
con tain
Ġra w
Ġbu iltins
co re
Ġver sion
ul ting
low ed
call back
L TER
mport Error
ĠFI LTER
l d
Ġo ld
me thod
n one
co mp
Ġcondi tional
- -
Ġ literal
unc ator
ĠTr uncator
ĠVariable Node
ĠDebug Parser
Ġin stan
Ġinstan ti
Ġ title
Ġwh i
Ġrece ive
Ġ W
C ON
T P
Ġw rap
Ġm ake
c i
c cur
or y
Ġo ccur
ht tp
Ġ limit
if y
Ġ RE
R L
Ġw rite
en code
G I
L exer
c ookies
Ġc an
ĠDebug Lexer
Ġ' \\
Re direct
+ )
ang ed
cre ate
B ase
a ck
ĠT ext
argument s
D e
O ST
l l
Ġ Parser
re quired
sta ck
node s
ti n
Ġcall back
Ġlower case
. ',
args pec
Ġget argspec
Ġvalid ators
E T
Ġw ord
OU N
f fix
f ail
m utable
Ġb ack
c lasses
ol ute
[ ^
n umber
ex pected
Ġoccur rence
2 00
Ġs ave
al t
m i
Ġex clude
I E
s q
ĠT ag
Ġa len
Ġp len
\\ ]*
y ear
Ġtoken s
line s
R I
Ġfile s
c ookie
Ġs m
Ġs eri
Ġ" <
Ġinstanti ate
h oice
u age
ng uage
( )
Ġre quired
qu o
Ġsta te
Ġcol le
" .
u me
p ost
Ġw arning
E ns
ĠL exer
Ens ure
su ffix
Ġ queryset
Ġso me
al l
ver batim
Ġform s
ge titem
X T
Ġco mp
lug ify
Ġ" _
Val ue
m in
reak s
h ost
Ġwith out
and om
Ġf ound
eri c
TE XT
b reaks
Ġstarts with
ĠD E
e p
bu iltins
and id
A U
Co uld
Ġreceive d
p l
Ġs alt
Ġ' :
] )
Ġr andom
" "
C H
ri es
R O
o pen
Ġcolle ct
c ol
ĠM E
valid ators
ĠI mportError
hoice Field
. %
Ġcomm it
ĠME TA
or ted
resolve d
Ġtr ied
Ġwarning s
a st
s ign
Ġ4 0
Ġd ay
T TP
sg i
W arning
Ġch eck
Ġfile name
handler s
D ate
L o
c urrent
D jango
I C
| %(
Ġent ry
s in
Ġs cheme
format s
Ġop ts
sin ce
Ġres ulting
lo sed
ver se
Ġun ique
ĠS imple
Ġgen er
pa re
Ġ view
le ar
Ġto p
place s
quo te
( [
H elper
Ġf in
ĠTag Helper
ĠTagHelper Node
ch anged
R OR
de nt
unc losed
es ca
move d
ER ROR
Ġclean ed
esca ping
Ġs mal
T RI
ri nt
AT TRI
stru c
Ġ G
S GI
U n
p attern
as sert
Ġline breaks
M A
e c
Ġun gettext
object s
BU TE
ATTRI BUTE
. ",
__ .
as ci
asci i
B LOCK
] +
pe ct
check s
Ġc srf
Ġn orm
Ġcon f
ulti ple
In Django
ĠRe moved
ĠRemoved InDjango
Ġsm art
m onth
S et
item s
Ġ te
s te
| %
e m
Ġ' "'
c lean
Ġme mo
Ġapp s
del ete
Ġb oundary
Ġdig it
one nt
Ġ> =
se cond
lo b
ĠM odel
) |
j ust
Ġexp onent
compile r
Ġgen eric
ĠText Node
Ġin dent
Ġco re
A D
Ġ R
Ġg lob
Ġent ries
De codeError
Ġsmal ler
Ġon ly
F AU
L T
ep copy
FAU LT
re quest
S ear
T H
q s
Ġc lo
ch ing
Sear ching
U P
re place
ĠUnicode DecodeError
Ġ"' "
Ġre ad
li ce
Ġm od
iz ed
ss ing
Ġoccurrence s
ki p
cl us
an ag
pa rent
Ġlo ader
Ġescape js
back out
Ġback out
Ġi p
T ime
Ġb reak
nodelist s
tr ans
o ther
us h
Ġa uto
ho w
d q
Ġd len
str sq
str dq
ĠHttpResponse Not
Ġseri alize
Ġsu m
lo op
Ġglob al
/ '
ĠF ield
ck le
ĠC h
i es
o u
Ġcharacter s
Ġabs olute
h elp
Ġ /
ra w
teger Field
clus ion
Ġc ookies
Ġp er
Ġlo ad
url conf
b its
s cheme
Ġs kip
Ġm ore
to col
time zone
Ġup load
s on
Ġi g
Ġre load
no re
Ġta b
P op
S L
b e
lo ader
ĠU N
Ġtime zone
ĠContext Pop
ĠContextPop Exception
I ter
h idden
di a
V AR
quest Context
ar ies
tes pace
Ġwid th
Ġwhi tespace
re set
Ġit s
c srf
Ġp y
g in
Ġ' {
ĠS tr
FORM AT
Ġ l
token s
la tion
Ġupdate s
o ined
r aries
ex ception
Ġj oined
Ġlib raries
Ġ' __
ch oice
AR G
Ġ O
< /
m iddleware
Ġ tu
Ġpre c
pect s
Ġtu pl
Ġwhitespace s
ment Node
Ġex it
Ġup per
mi ssing
Ġ2 0
ĠHttpResponse Redirect
Ġpos i
ĠStr ing
Ġpo wer
B RA
u b
ĠF ilter
ĠS ING
ĠIn tegerField
Ġro w
BRA CE
ĠSING LE
Ġ2 00
C hoiceField
OUN D
Ġ unclosed
Ġd b
Ġsu p
h i
ur lize
Ġur lize
Ġtime since
BU G
ĠString Origin
) ",
Ġ Origin
Lo cation
Ġwidget s
t oo
Ġ3 0
Ex pression
Ġla nguage
ĠFilter Expression
do main
W idget
de epcopy
ĠA ssign
ĠAssign mentNode
Ġh andler
Ġcomp are
Ġin sert
Ġchar set
Ġlookup s
too ls
un ique
Ġen ter
inf o
P RO
n ontext
Ġ" \
Ġitem s
Ġig nore
Ġres olver
> %(
se par
as on
char set
P E
Ġ 8
Ġ qs
model s
Ġ(? :
T r
en ter
Ġmatch es
Ġword s
Ġparse d
Ġ' -
Ġdi r
ile nt
Ġnew line
ĠContext Dict
an y
it y
ore ign
) "
Ġbe gin
Ġf loat
ĠW SGI
ĠDE FAULT
S erver
Ġkey word
Ġrever se
Ġfin al
Ġclo se
Ġth at
A SE
f ind
w rap
Ġtemplate tag
Ġen ume
CH AR
Ġenume r
iter able
H TTP
I RE
Ġde pre
D ATE
L D
__ '
ro w
QU E
Ġde con
comp ati
Ġsel ect
if ied
e nt
s ing
res ponse
ĠI P
H andler
c andid
Ġun escape
contain er
candid ates
Ġsup port
ul l
Ġch oice
Ġurl quote
Form Set
F ile
te n
Ġpar ts
pli cation
Ġcontain s
ĠRe gex
Ġiter able
Ġver batim
s able
Ġ( %
i m
ĠMulti Value
U N
ti ble
Ġre main
Ġ' )
od y
Ġme ta
En coding
struc tible
Ġdecon structible
al iz
ĠU RL
Ġend tag
Ġnorm alize
tr ue
__ .__
ol low
ĠA L
stream ing
no t
S ON
Ġ' .
Ġ'_ (
Ġflat ten
: %
Ġs pec
un ter
ĠN ot
Ġdel ta
da y
ĠRe questContext
RA N
Ġ 6
ir d
Ġth ird
Ġends with
> \
T Y
u late
dec imal
I mple
U MENT
ken d
mented Error
ste ad
Ġpy thon
ARG UMENT
ĠNot Imple
ĠNotImple mentedError
O OK
ĠĠĠĠĠĠĠĠ ĠĠĠ
OOK IE
C ookie
O DE
Ġf l
Ġin stead
fe rence
um n
NO W
mit ted
em on
K NOW
m t
Ġpro tocol
oi nt
Res olver
Re quest
KNOW N
' t
Ġex ec
var s
ati ve
ĠIP v
OOKIE S
p orted
te list
Ġor der
ĠDebug Node
TI ON
ME TA
b oundary
contain s
Ġde code
Ġcon tin
Ġcontin ue
N T
s how
t ream
Ġre direct
co uld
Ġgener ated
s elect
2 0
g ac
u res
ti ze
Ġmessag es
Ġcol umn
fail ures
ĠHttpResponseRedirect Base
gac y
= %
s ilent
s ity
Ġp oint
ĠC o
sub ject
bo sity
g i
v es
Ġs lice
Ġan other
Ġw sgi
le gacy
Ġtoken ize
En codeError
ĠE mail
ĠUnicode EncodeError
[^ '
a che
rn ame
ig u
Ġ4 00
Ġ'_ '
DE BUG
> "
TE D
up load
ĠDebug Variable
ĠDebugNode List
ĠDebugVariable Node
Ġresult s
Ġiter ation
Ġwrap s
Ġs erver
Ġc ookie
Ġm ay
P ost
U T
Ġs imple
un icode
up ported
ĠS elect
Ġr un
compati ble
_ .
s ca
Ġp ost
Ġm ap
Ġmodel s
" \\]*
) *
> [
^ (?
f loat
i al
se titem
Ġn an
et a
ne eds
\\ .
idden Input
(?: \\.
lookup s
[^ "\\]*
]+ |%(
anag ement
Ġspec ial
[^' \\]*
>[ %(
float s
de red
Th e
ĠMultiValue Dict
H OST
Ġ z
Ġa v
Ġ3 04
ĠD ate
Ġadd ress
Ġtime out
Ġ `
Ġf lo
Ġn one
Ġ5 0
igu red
4 04
F or
M AR
W ED
Ġre l
Ġ' /'
ĠT RAN
di ter
LO WED
clo sed
Con f
Date Time
SL ATOR
QUE ST
MAR K
ĠTRAN SLATOR
? \
od ified
per ly
ĠĠĠĠĠĠĠĠĠĠĠĠĠĠĠĠ ĠĠĠĠĠĠ
Ġg ot
ns ion
( \
H AL
T ext
a ture
se ri
sta mp
len code
load ing
ĠR OUND
HAL F
Ġpar tial
Ġh and
Ġch ild
Ġhand le
H E
P UT
h elper
s lugify
Ġs lugify
Ġc c
ol d
Ġcompile d
IN PUT
Ġ4 1
Ġprovi de
config s
CE S
oreign Key
m ake
Ġ query
valid ate
ĠD jango
bo x
P P
p time
Ġn s
mp ro
Ġfunc tools
ĠTemplate Encoding
ĠI mpro
Un closed
Conf igured
perly Configured
ĠTemplateEncoding Error
ĠImpro perlyConfigured
ig ra
line no
Ġline no
new lines
Th is
A l
R CE
S OU
e q
Ġe sca
Ġp i
ĠUN KNOWN
Tr ue
SOU RCE
Ġesca per
Ġset list
Ġpa ck
ne xt
Ġs ty
del item
Ġsty le
Y ou
Ġp rint
Ġpack age
* ?
- %
C ache
X Y
b idden
ex pects
TE NT
For bidden
M ultiple
Ġ J
Ġname d
ulti part
widget s
U RL
p h
Ġun its
ex p
Ġpro cessor
Ġ'\\ '
Ġposi tional
ĠCo mmand
ĠĠĠĠĠĠĠĠĠĠĠĠĠĠĠĠ ĠĠĠĠĠĠĠĠĠĠĠĠĠĠĠĠĠ
ĠAL LOWED
. *?
F IE
S ign
Ġform field
ap plication
Ġta bs
.*? %
FIE LD
a in
Ġc ls
L e
V ER
[ \
c ated
f in
s i
Ġle ast
Ġ': '
Le ngth
s ave
Ġf ix
' '
clean ed
Ġre ason
Ġal low
P H
[ -
Ġf name
Ġdi s
nder Context
Ġur lencode
SE T
ĠRe nderContext
sub classes
Ġdepre cated
} '
sti ng
> ",
co unter
no w
ns upported
tra ct
NO T
Ġtruncate chars
= '
al lowed
Ġ' --
res olver
ac kend
aliz er
b r
f k
p an
ĠSimple Node
re l
Ġc lear
pro ject
dir s
Ġexec u
A dd
U nsupported
o th
Ġb f
Ġb oth
ĠT ime
bu ilti
Ġchar s
Add ress
builti n
Ġp ush
a ting
h a
t al
ex tend
time out
Ġobject s
ĠIn clusion
sub module
ll back
ĠInclusion Node
al s
Ġ. .
Ġincre mented
, \
E mpty
U SE
mp or
anno t
Ġtime until
word s
Ġtruncate words
Ġfl up
W AR
n ing
in put
Ġn um
text s
file name
Ġneg ative
Ġexecu tion
c gi
Ġc annot
Ġ4 2
Ġbu ild
Ġassign ment
QU IRE
ĠRE QUIRE
CES S
ĠREQUIRE D
n a
p o
Ġtrans late
P art
Ġthe re
Ġp gettext
clo sable
Part Parser
1 9
Ġp ub
Ġme dia
Ġj son
f alse
f ollow
i nt
rg s
Ġno follow
Ġm utable
Ġset default
ĠF ile
par ser
Ġsta ckle
Ġstackle vel
O T
Ġreturn ed
nsion s
ar Field
la rgs
Ġ" ,
Ġget cal
ex clude
res ult
Ġgetcal largs
I ON
or der
un get
ĠN umber
ĠĠĠĠĠĠĠĠĠĠĠĠĠĠĠĠ ĠĠĠ
ĠUn expected
ĠToken Parser
(?: [
Ġyear s
Ġmonth s
ĠSimple Cookie
ĠNumber Input
) ?
ter s
Ġsub tract
Ġm app
Ġte ll
trans late
Ġmapp ing
o id
Ġ Ex
pe d
safe string
Ġsafe string
Ġdicts ort
f ter
w o
Ġa fter
Ġt wo
cke t
stru ct
- \
w hi
re g
Ġunpa ck
I A
b ody
v ir
c ri
Ġs en
ĠTemplate DoesNotExist
Ġpre pare
ĠBase Validator
Ġ'< %
cri p
_ %
Ġd a
http s
"" "
H ttpResponse
q l
Ġs ort
Ġs ql
Ġe xt
Ġ' .',
der r
able Post
read ablePost
Ġdir s
readablePost Error
. '.
r ro
w rite
Ġ' ;
O D
] ?\
m sg
Ġt able
valid ator
ĠH iddenInput
Ġnamespace s
ĠMulti PartParser
> ',
u mp
ĠĠĠĠĠĠĠĠ ĠĠĠĠĠĠĠ
Ġb ut
Ġal lowed
ĠG ET
E C
a ct
w sgi
Ġm o
ig ht
ĠS plit
out put
ĠUn readablePostError
Ġfk s
OUN T
IC ODE
PRO CESS
Ġ'- '
p rint
Ġto tal
Ġm ulti
pla y
I L
i sting
n ume
Ġs ize
re ver
Ġp print
to p
ri c
ast cgi
wrap ping
Ġav oid
nume ric
rever sed
or igin
Ġsu rro
ex tra
5 6
C OUNT
S elect
Ġe mail
Ġsub node
Ġfile size
Ġtrans lation
Ġdis play
M eta
e ted
Ġo pen
Ġm ultiple
Ġfile path
date time
TI ME
Ġper form
Ġflo ating
c ure
f act
Ġraise d
label s
RE QUEST
Ġhttp d
fact ory
b ound
p op
p ly
Ġ" "
Ġiter ator
ĠRegex Validator
d b
Ġdi rect
Ġunder s
ĠC OOKIES
Ġbegin ning
Ġc andid
Ġ" \\
ĠFI LE
scheme s
Ġcandid ate
] {
c le
y cle
la nguage
Ġcon cate
ĠS top
ĠCommand Error
Ġconcate n
M odel
ti ve
de code
Ġpre pend
Ġmulti ply
M atch
Ġ RA
Ġf ail
Ġm ime
Ġm iddleware
ĠF oreignKey
MA PP
MAPP ING
d out
Ġp ut
Ġnew lines
ump s
M odified
Ġs orted
ment s
ar ch
Ġn on
Ġstr ptime
name space
ra se
qui res
OU T
Ġ', '
Con tent
ph rase
whi telist
vir on
) .'
s crip
re move
\\ '
Ġgener ator
ĠCh arField
Multiple ChoiceField
Ġda emon
a bs
h one
Ġp hone
Ġh idden
co res
Ġth read
Ġescape d
FORMAT S
Ġunders cores
= "
s sed
Ġ'% (
Ġte mp
Ġdirect ory
> '.
er o
Ġset ter
son Response
Ġ') '
) .
Ġs i
con ver
Ġappend list
Ġip v
f mt
Ġs to
ex it
Ġca p
ĠP OST
Ġremain ing
Ġconcaten ate
D LE
a uto
Ġm ode
ser ver
Ġlo cation
data dict
Ġevalu ate
reg ister
3 4
c ss
o f
ti ty
se nt
Ġ' "
ĠT O
Ġex pression
ex pr
ĠB ad
Ġlabel s
js on
Date Widget
trans lation
Al lowed
ĠJ sonResponse
Ġcal c
it able
Ġdi vi
Ġkey s
ch ed
Ġinteger s
Ġ"_ (
Ġdivi de
s pan
Ġ' ^
an i
is allowed
ĠD isallowed
sta tus
N A
ĠB ASE
Ġsys id
ĠCh eck
Ġpub id
ĠF A
ĠH ttp
ĠU SE
Ġlocal ized
Ġsign als
ĠHttpResponseNot Allowed
CHAR SET
Ġpi ckle
Ġenumer ate
Ġenumer ated
Ġsi de
' \
I LE
V ARIABLE
s or
} '.
Ġ 7
Ġ 9
Ġc enter
st ate
Ġp list
op ts
SE R
Ġr just
Ġsign ing
Ġencode r
Ġl just
CHAR S
Ġcap first
I O
up date
local ize
Ġhandler s
ĠWSGI Server
Ġcalc ulate
A N
B ackend
c lear
Ġ IN
la red
Ġp ort
lo g
AL PH
tern al
ĠI O
AB ET
ĠP Y
Ġdecimal s
CON TEXT
Ġper mitted
ALPH ABET
$ '
Ġre quires
Ġu ser
." .
method s
now n
T ype
i li
m ultipart
r un
Ġ Error
Ġc ur
ĠN ON
Ġfile d
Value Validator
ERROR S
Length Validator
Ġcur sor
N one
ĠL o
conver t
> %
k ing
or s
le ase
ĠU se
Ġver bosity
AD ER
ĠHttpResponseNot Modified
ani tize
Ġm w
ĠF orm
ĠBase Model
abs olute
Ġsto re
ĠIO Error
y tes
| [
Ġf p
Ġimport lib
ĠH TTP
ĠHttpResponse Base
ĠL oo
Ġ"< %
DateTime Widget
Address Field
e st
er ce
Ġin verse
ĠS ign
Ġhas h
Ġ'\\ "'
Ġ'\\ \\'
tin al
si tion
po sition
Ġsen tinal
NA ME
G E
G N
J SON
S tream
e mpor
w arn
et lo
Ġdec re
ĠB ytes
En code
etlo c
m age
al ters
Ġw arn
ĠBytes IO
Y PE
m od
v is
re n
ĠT YPE
Ġ2 5
ra ise
Ġform set
form set
que nce
Ġheader s
Ġd id
In line
local ized
Ġscheme s
scrip t
Inline FormSet
2 34
7 8
T empor
r ame
al Field
valid ation
Ġattribute s
Ġurl split
ĠBase Tempor
Ġfinal ly
56 78
234 5678
ĠBaseTempor alField
2345678 9
: /
Ġdi rname
ang e
ĠBase InlineFormSet
d one
i c
l ur
al low
Ġp lur
In f
Ġse en
Ġtime stamp
JSON Encode
H eader
Ġ quote
te nsions
Ġap pen
set ting
Ġal tern
Ġappen ded
B oolean
P OR
x y
{ }
Ġ Resolver
Ġi o
re verse
ti c
ing HttpResponse
template s
Ġdecor ated
Ġse nder
Ġsta tic
ĠEx pected
P Y
Ġn etloc
co erce
ĠĠĠĠĠĠĠĠĠĠĠĠĠĠĠĠ ĠĠĠĠĠĠĠ
a ile
f low
h es
s las
s lice
Ġre pre
Ġex c
Ġex pected
Ġset attr
Ġdi vis
con nection
ver flow
oo l
Ġcre ation
Ġy es
Ġadd slas
iter ator
Ġv ary
loat Field
ho uld
CON TENT
fail ure
sq l
ĠO verflow
Ġfloat format
Ġremain der
ĠDjango JSONEncode
ĠMultiPartParser Error
Ġthread ing
ĠLoo king
aile d
Ġaddslas hes
ĠOverflow Error
F alse
Ġd umps
tr ied
li ent
Ġm any
ma p
Re gex
Ġ"\\ '"
( .
* %(
+ \.
= )?
B O
n on
Ġ ^(?
st ar
et ag
ĠN o
Ġ" (?:
ĠS tream
escape js
ĠToken parser
Variable s
Ġro llback
+) =)?
Iter ation
Ġ(?: \
Ġ(?: %(
Ġ'_( '
(?:\\. [^"\\]*
(?:\\. [^'\\]*
[^"\\]* (?:\\.[^"\\]*
[^'\\]* (?:\\.[^'\\]*
[- +\.
ĠStop Iteration
Ġrepre sent
(. +)
BO SE
ĠStream ingHttpResponse
+)=)? (.+)
[^"\\]*(?:\\.[^"\\]* )*
[^'\\]*(?:\\.[^'\\]* )*
[-+\. ]?\
) )
a b
set ter
Ġchunk s
Ġconnection s
anag er
TY PE
E Y
F ailed
I P
K EY
N U
T O
U E
f rame
n er
Ġre t
rg e
rg et
ta rget
ch ild
Ġ1 00
Ġ4 04
Ġy ou
ĠDecimal Field
01 23456789
Ġ': ',
Ġ40 3
Ġfin diter
ste p
fin diter
star ted
NU M
I ME
li ke
Ġsurro und
_ ,
b ind
f tp
Ġa c
ra ter
ĠC hoiceField
Ġg rater
OR S
OR EC
Ġbe en
bo th
sign er
MA IL
silent ly
URL Resolver
GN OREC
GNOREC ASE
a ulting
f to
m anager
Ġdef aulting
__ ,
Ġg ue
SE S
ID DLE
exception s
Ġupper case
igra tions
WAR E
IDDLE WARE
h ist
ti f
Ġm ain
ut f
list s
co mple
Ġdata base
Ġheader list
ĠModel Form
Sign ature
Ġhash lib
hist ory
Ġreturn s
iter items
pro cess
a th
s pare
Ġto o
ame ter
Ġle t
DE D
Ġz ero
igra tion
IP AddressField
) -
P OST
V ary
W SGI
ke s
at t
ta kes
name s
ĠM e
Ġrepresent ation
- ]{
r s
t pon
or rect
la tin
an tize
id th
ver bosity
Ġun expected
qu antize
Re verse
Ġ5 00
Ġsepar ator
ĠURL Validator
exp ires
PROCESS ORS
pop ulate
tpon ly
C T
Ġf astcgi
ĠN OT
ch es
ĠV ER
Ġiter items
ĠForm Set
Ġsurround ing
. .
C DE
c def
f t
g hi
j k
p q
v w
Ġs how
Ġthe m
tu vw
ter ac
Ġm ost
Ġstring format
Ġex pects
Ġ" %(
Ġ2 04
di ctionary
ĠM in
ĠM ax
Ġline number
AB CDE
Ġiri encode
xy z
ab cdef
rs tuvw
ghi jk
pq rstuvw
terac tive
Ġlinenumber s
ABCDE F
abcdef ghijk
pqrstuvw xyz
B ad
P lease
e ight
j oin
o le
Ġro ot
Ġsetlist default
ĠDjangoJSONEncode r
Ġgue ssed
' ([
C GI
p i
Ġs end
de bug
Ġ" ([
Ġu sing
time since
Ġr split
CON T
]) "
]) ",
]) '([
Ġposi tion
S SL
Ġre mo
la t
Ġ" [
is te
mo ves
ĠI f
Ġmo ves
ĠBaseModel FormSet
comple te
s ix
u sed
Ġthe n
rn o
ex isting
Ġ4 10
da emon
pattern s
Ġload ing
Ġprint able
ili ty
Ġplur al
Ġremo v
H I
Ġc ut
Ġw as
ĠT h
con struct
Ġpar ameter
Ġse p
cre ated
Ġbu f
:/ /
iste red
A GE
F ound
ti es
se cure
ch unk
hand le
default filters
CH E
Ġ40 5
DateTime Field
ĠDisallowed Redirect
Ġ |
Ġ OR
Ġo per
for k
Ġstate ments
Ġfix ture
4 6
A Y
w idth
Ġin clusion
ro ug
Ġtr im
ut c
ĠC ON
ĠUnicode Error
Ġso cket
-- --
Ġwhi telist
loop vars
separ ated
ĠDate Time
ĠTO O
ILE D
POR TED
ĠNo Reverse
roug h
ĠCON TENT
ĠNoReverse Match
G ET
c s
s ys
li c
ta ch
Ġle ft
Ġth rough
Ġevery thing
urlconf s
Ġ.. .'
J K
K B
L M
M e
M IDDLEWARE
P Q
R ST
U V
W XY
a i
f ore
l m
} \.
Ġ KB
Ġs ing
Ġe r
ul ar
tr unc
tr as
ĠT B
ver sion
pa st
Ġ3 01
no pqrstuvwxyz
en er
ĠM B
Ġurl parse
cl s
Ġpo ss
Ġtype s
ĠP B
ĠText Input
Ġword count
Ġword wrap
ĠG B
Ġnorm al
Ġurlize trunc
Ġ30 2
separ ators
ABCDEF G
abcdefghijk lm
JK LM
PQ RST
UV WXY
ai lable
abcdefghijklm nopqrstuvwxyz
PQRST UVWXY
PQRSTUVWXY Z
f er
r odu
lo cation
Ġdel eted
Ġ.. .',
E X
E mail
I mportError
N o
r u
re mo
se q
Ġdi f
ca ched
ex c
Ġsafe seq
Ġpass word
default tags
Ġstrip tags
Ġlinebreaks br
Request Handler
exp i
OD IF
TIME OUT
etag s
Ġremov etags
remo val
C OOKIES
el f
or dered
Ġb ody
Ġh int
seri alizer
! #
A CHE
I SE
S Error
T F
e nder
t ls
w w
th read
Ġt pl
un split
ss l
ver ter
Ġun get
ĠF loatField
bu ild
Ġst derr
res sed
ĠU TF
Ġurl unsplit
Ġ< =
Ġremove d
Ġpop item
Ġpattern s
ci ous
ĠO SError
PRO XY
ference s
Ġmay be
Ġdictsort reversed
ĠRA ISE
ĠMe dia
.. ."
Ġdif ference
D IRE
re ason
Ġf ull
Ġ' (
Ġ' ='
ĠT IME
Iter ator
DIRE CT
2 4
I ED
P RE
W OR
] \
g ment
i ble
le fto
key word
Ġun sign
ra gment
Ġadd r
Ġ'_( "'
ĠEmail Validator
ODIF IED
..." >'
lefto ver
Ġc ycle
Ġm anagement
Ġas var
Ġch ain
Ġwh ole
Ġ'; ',
B AD
D I
O L
O P
P er
S pare
] |
s o
Ġw eight
st derr
ĠIn put
AT ION
00 1
Ġsign ed
oundary Iter
group s
Ġgroup s
ĠUN ICODE
UN ICODE
Ġz lib
Ġaltern ate
C h
m anagement
o mp
w ho
Ġdec omp
Ġst dout
Ġse quence
AL IA
Con verter
Ġsave d
Header Error
who le
Ġdecomp ress
ALIA S
Ġs te
Ġi den
Ġo ver
tr ol
Ex ha
ma c
us ted
NO PQRSTUVWXYZ
Ġ'; '
Stream Exha
UE S
Bad Request
HI JKLM
ABCDEFG HIJKLM
Ġste p
StreamExha usted
ABCDEFGHIJKLM NOPQRSTUVWXYZ
& '
Ġp rodu
Ġget ter
Ġco unt
DE FAULT
F F
G one
U S
U se
d is
g ener
al ized
Ġc orrect
Ġcon struc
Ġm ail
ĠH eader
Ġsecond s
VAL UES
Template s
Co mmand
ĠW idget
IC ATION
Ġclo sable
Server Error
Ġ"[ %
Ġiden tity
gener ate
Ġconstruc ted
L A
c an
r al
tu ral
ap pend
so cket
T o
m ark
p at
re f
Ġan y
Ġwi ll
Ġde bug
ro llback
pa ge
ed itable
ST CGI
Ġen viron
ĠĠĠĠĠĠĠĠĠĠĠĠĠĠĠĠ ĠĠĠĠĠĠĠĠĠĠ
MP TY
pro tocol
CE P
ull Boolean
stamp Sign
ĠTime stampSign
Ġdaemon ize
ĠBad HeaderError
ĠFA STCGI
Ġer rno
ĠTimestampSign er
Ġf ollow
de pre
Ġtemp dir
Ġdecre mented
$ ',
6 2
B lock
e mail
Ġf mt
Ġf ragment
Ġp ri
Ġel t
ve nt
ig r
ck led
mm utable
ĠM ON
Ġmsg s
ĠHttpResponse BadRequest
ĠHttpResponse Gone
ĠHttpResponse ServerError
su bs
Ġiter tools
FOR WAR
Ġencode d
comp at
ĠModel MultipleChoiceField
TH S
ĠWSGI Handler
ĠRegex URLResolver
Ġpi ckled
ĠSplit DateTimeWidget
ĠMON THS
FORWAR DED
tr ac
at om
Ġ" ""
ex tras
Ġdepre cation
depre cation
atom ic
@ '
C CEP
i ew
m an
Ġs hould
Ġ' |
Ġ' @'
Ġdef in
Ġun ordered
str s
ĠV iew
Ġlo g
Ġch anged
ĠHttpResponse Forbidden
check box
for loop
Ġcomm a
ĠHttpResponseNot Found
ent Redirect
ĠSelect DateWidget
HE AD
Ġside s
Per man
ĠInput StreamExhausted
Perman entRedirect
) '
E MAIL
m igr
Ġre pr
Ġin clude
ro second
Ġdec lared
and s
ssag e
Ġ'_ ',
Ġl ru
na tural
Ġoper ands
Ġfollow ing
C OL
V ED
a v
f l
Ġt mp
st dout
li ct
Ġun used
Ġbase s
Ġreg istered
ĠS us
tp lib
dig est
del eted
ĠMulti ple
Ġsm tplib
host s
Tr ans
ha ust
Select DateWidget
SER VER
Ġlet ter
)- (\
pi cious
Ġposs ib
ĠSus picious
' ^
P ro
p ub
Ġ' *
Ġcon struct
Ġex tensions
Ġop tion
dig it
Ġcomp ress
request s
Ġread line
Me ssage
C om
D IC
V ar
s pect
tu p
tu res
Ġ' #
Ġ' }
Ġin spect
Ġp dict
cal lable
Re questContext
ĠHttpResponse PermanentRedirect
app s
Ġbe fore
unk nown
RA DIC
prefix es
mi ssion
ĠTag s
Lo ader
ĠModel ChoiceField
Ġ'{ #
Ġ'{ %
Ġ'{ {
ĠFile Field
CONT RADIC
lat ors
}\. \
Ġ'( %
dis position
lict s
Trans lators
Com ment
CONTRADIC TION
p ush
Ġs anitize
me rge
er r
Ġbit wise
op tions
ĠM eta
data base
Ġr ange
ĠBase Converter
E LD
H idden
b ool
e Regex
r c
v ate
Ġa ge
st al
Ġde epcopy
ce r
Ġh ex
di me
per mitted
EN G
en viron
cal eRegex
Ġsign ature
ĠFI ELD
Ġloop vars
index es
sign ed
Ġview name
ĠWSGI RequestHandler
ĠEmail Backend
ĠDate Field
ĠDate Input
Al low
Ġmo ve
ĠRA W
ĠBad Signature
ĠLo caleRegex
Ġdivis ion
Ġsub trac
Ġme th
key s
as k
Ġuse d
Ġr ight
cre ation
Ġwhi ch
im age
ĠJ SON
Ġsubtrac ted
A SON
F oreignKey
Q L
a w
a ware
h ed
h mac
i ver
Ġthe y
un ded
ist ry
str ptime
is hed
ĠS QL
en eric
line ForeignKey
Ġse cure
ĠIn lineForeignKey
ĠM odified
Ġlocal e
RA SES
Ġval e
ĠW arning
ĠRE QUEST
ĠRE ASON
Un expected
Ġ/ /
Ġload s
fin ished
PH RASES
resolver s
bind Address
eneric IPAddressField
ĠInlineForeignKey Field
N ame
l in
s anitize
Ġre raise
in teger
Ġb ound
dec lared
Ġcol or
Ġcondi tions
ĠDE BUG
" ',
I TY
L TI
M U
N ENT
P ath
U TH
W AY
b ility
n k
r ch
s lug
t d
Ġ ENT
Ġ ERROR
ĠĠĠĠĠĠĠĠ ĠĠĠĠ
se nd
la nk
id na
OR I
Ġapp ly
ĠA UTH
ATE WAY
ENT ICATION
ĠL ARG
ER MA
ĠE MPTY
del im
Ġht tponly
ĠP RO
CON DI
ĠRE DIRECT
Ġseri alizer
AU TH
UP PORTED
separ ate
anagement Form
Ġav ailable
ĠFA ILED
TO COL
ĠTIME OUT
PRE CONDI
dime nsions
MU LTI
rch ive
ĠENT ITY
ĠAUTH ENTICATION
ĠLARG E
ERMA NENT
AUTH ORI
PRECONDI TION
f astcgi
m any
m igrations
Ġa ction
Ġs h
re raise
se arch
Ġin teractive
Ġb ackend
late d
Ġse arch
]* '
comp are
qs l
loader s
daemon ize
) :
H iddenInput
I f
M TP
g es
w n
y thon
ti ties
an ded
Ġex isting
Ġ" )"
pa ges
able File
Ġuse rname
ĠC lear
Ġurl resolvers
Data Exception
Ġexp anded
Ġcondi tion
Con trol
year s
Ġcheck s
Un safe
Ġconf licts
month s
Ġfl ush
Post DataException
ĠTime Input
Meta class
AN G
Email Backend
ĠMultiple HiddenInput
aw PostDataException
ableFile Input
ĠClear ableFileInput
' >"
' >",
U p
f ull
u til
Ġde st
Ġap plication
Ġor ig
ER Y
QU ERY
Ġcheck box
Ġmeth of
$ %
* +
, .
/ =
1 7
? ^
U RE
] +)
_ `
b lank
f o
o tif
| ~
} </
Ġ ke
Ġ til
re ferences
el ist
Ġf il
ti v
Ġc ss
Ġc lasses
nt s
Ġwi ht
get state
Ġel em
Ġpar sing
Ġco unter
Ġpro ject
Ġlength s
par sing
TA L
date format
Ġdate format
Ġmodel form
ĠDecimal Exception
Ġrece iver
01 3
01 4
01 6
HE ADER
[- !#
Ġmode s
Type d
{} |~
expi red
&' *+
stal led
$% &'*+
/= ?^
17 7
_` {}|~
otif y
Ġtil l
Ġfil elist
Ġelem nts
Ġcounter s
[-!# $%&'*+
/=?^ _`{}|~
[-!#$%&'*+ /=?^_`{}|~
" (?:
' [-+\.]?\
S ION
\ ."
b d
e k
p id
Ġ quo
Ġ) ?
Ġ) """
Ġan bd
Ġ' [-+\.]?\
Ġ" ^(?
Ġdig est
Ġ"' [^'\\]*(?:\\.[^'\\]*)*
Ġ< <
'" [^"\\]*(?:\\.[^"\\]*)*
(?: %(
(?: (?
"' [^'\\]*(?:\\.[^'\\]*)*
]* ',
Ġflat att
\. ",
+) (?:%(
)| (?
)| ^(?
Ġits elf
Ġ') ',
Ġ') '.
Ġ'_( ',
VER BOSE
)? )",
Ġ'" [^"\\]*(?:\\.[^"\\]*)*
Ġ"_( "
Ġ"(?: %(
Ġ"(?: (\
+)=)?(.+) "
+)=)?(.+) ",
)) )?)",
ĠVER BOSE
"(?: (\
Ġquo tes
Ġ"'[^'\\]*(?:\\.[^'\\]*)* '",
'"[^"\\]*(?:\\.[^"\\]*)* "'
"'[^'\\]*(?:\\.[^'\\]*)* '"
Ġ'"[^"\\]*(?:\\.[^"\\]*)* "',
( \.
> {
C RE
f la
i mport
Ġ Or
on ly
la ce
Ġe mit
Ġin ver
Ġb ad
Ġp lace
li t
Ġsubstitu tions
Ġ[ %
Ġob tain
tag name
no red
Ġtag name
ĠS EC
Ġout dict
Ġy our
Ġmodel formset
Ġ/ >'
TION S
ĠTime Field
setting s
Ġstatic method
fla gs
: \
I GNORECASE
c kend
Ġno w
'. "
um ask
Ġpath s
ba ckend
ĠI GNORECASE
Ġabs path
+) ?
filename s
Ġprodu ct
2 5
= {
I TI
L ENG
M ODIFIED
b ject
c lient
u ter
Ġs lug
Ġs pan
ĠC on
ĠA uto
Ġ10 24
iz ation
CON F
Ġdigit tuple
Ġ/ >',
ĠSelect Multiple
order ing
ĠSplit Hidden
ĠError List
Ġsing le
WOR D
Ġke ep
={ !
ITI AL
LENG TH
ĠSplitHidden DateTimeWidget
a ded
Ġco mb
Ġca ches
Ġinitial ization
Ġurl lib
max child
max spare
Ġmax size
read lines
url lib
() ,
min spare
dered Dict
WSGI Server
ĠOr deredDict
maxchild ren
! -
) +
, }
< !-
? \.
C ACHE
F O
F OUND
S U
S ub
\ ]
] (?:[
c ted
f ol
h ave
i ped
r b
r itable
} [
Ġ quantize
te st
un pa
Ġp atch
Ġstr iped
Ġex haust
der s
ust om
ĠBase EmailBackend
(? <!-
Ġat tach
direct ory
]) ?\.
ĠR awPostDataException
na ive
Ġsurro unded
ĠCheck box
OP TIONS
ĠView DoesNotExist
,} (?<!-
fol ders
])?\. )+
_ '
al i
Ġun ion
Ġlist s
Ġh ard
Ġ'% ',
form field
co m
Ġ"% "
sign als
Ġdir path
seri aliz
Ġdecre ment
ĠMin ValueValidator
ĠMin LengthValidator
ĠMax ValueValidator
ĠMax LengthValidator
" >%
M ulti
O bject
P AT
d n
f q
o Field
r idden
Ġs rc
re main
re loader
tu al
Ġarg set
Ġb ool
ca ches
ex clusion
ex tensions
instance s
ĠM ED
Re ference
Ġtrans fer
over ridden
ĠTO TAL
ternal Reference
ĠSign al
Ġdivis ible
fq dn
remain ing
exclusion s
ĠMED IA
ternalReference Forbidden
g ot
Ġ utc
in ternal
Ġo t
ter ator
Ġm d
con tra
di ction
ĠS TA
'. ",
Ġtuple s
ĠI terator
Ġcomm as
ĠSign er
Up load
Ġinver ted
contra diction
S TED
T ag
U AGE
W I
f time
s pe
Ġ LOCK
Ġs ig
re e
ce ssed
ro spe
ĠN ullBoolean
Ġm igrations
var list
Ġle vel
Ġby te
EN C
Ġla zy
Ġobj ec
ĠM anagementForm
ON G
RE QUE
mb oField
Ġparent loop
lug Field
namespace s
Ġtemp file
att name
ĠDateTime Input
Path Field
ANG UAGE
Sub classes
ĠCheckbox Input
rospe ction
REQUE STED
( "
) ,
? )
D B
u ser
y es
Ġ( "
in verse
Ġw ritable
Ġsub mitted
Ġm cs
Ġst at
op tion
Ġx readlines
Ġsepar ate
Ġraw data
ec ted
ĠTh e
' ;
. \
? |[
H ost
I mage
M O
c r
d j
e en
e qual
f oreign
k nown
l just
n ter
p p
r just
w een
Ġa li
me dia
ce nter
et ween
Ġme di
con v
pa ir
ex ist
Ġbase conv
ĠDe fu
Ġal read
Ġorigin al
eri alizer
Ġ'< /
Ġwrap ped
all ing
struc tures
File Ex
ĠEmail Input
ĠDisallowed Host
ĠIN ITIAL
ĠVER SION
ĠDateTime Field
migr ate
unpa ck
'; '
Ġali as
Ġmedi um
ĠDefu sed
Ġalread y
7 0
C LA
J an
L ANGUAGE
M T
S SES
h ib
Ġs ilent
in complete
Ġe method
Ġin ner
Ġu s
Ġform ated
Ġca ched
Ġ0 0
Ġ0 1
pre pend
Ġ', '.
Ġro uter
Th u
comp ress
ĠG MT
19 70
serializer s
Ġ'* '
CLA SSES
) ',
: [
: ]+
F ILE
T US
m ust
n path
n META
n POST
n GET
n COOKIES
o s
s hould
z A
Ġf d
or mp
in otify
Ġn ine
Ġno tation
and ard
Ġreg istry
Ġne ed
Ġst andard
Ġpro cessed
line breaks
ĠB oundaryIter
vi der
ĠM igration
ĠI mmutable
En tities
unk Iter
use rname
]* :[
comp ressed
Ġcomp ressed
sign ing
ĠCh unkIter
Ġupload handler
Ġpy inotify
ent ries
HOST S
=' {}
Ġpub lic
ĠCheck Message
sys tem
ww w
Pro vider
ĠLocaleRegex Provider
Ġemit ting
PAT H
ĠSTA TUS
(" %
ormp ath
ĠImmutable List
Entities Forbidden
='{} ',
i ssing
Ġa d
Ġs y
Ġm ic
Ġm issing
IN TER
ST AT
Ġurl join
Ġneg ate
seri alized
Ġsen tial
=" {
server s
Ġ"_( '"
Ġ"_( '",
Ġmic rosecond
A CCEP
I M
M ix
a rea
a zy
m ode
m ary
s ive
} {
Ġre la
Ġre loader
Ġ' /
Ġ' ]
Ġm igration
Ġle ss
ig nore
odu cer
Ġreg ular
ht tponly
ĠD WORD
>< /
token ize
max Spare
ĠBase Cache
LO ADER
ĠI mage
Ġdel im
ĠL azy
pr oducer
del ta
cur sive
64 00
min Spare
Ġ': '.
Ġboundary stream
Ġig nored
Ġ8 6400
Ġtable s
ors el
Boolean Field
ĠResolver Match
Ġret val
Ġpri vate
fl up
Ġapply ing
Ġsh util
tiv ated
ĠNullBoolean Select
Ġrela tive
Ġdelim iter
ĠLazy Stream
O ne
c cess
c ycle
Ġ You
se quence
Ġsu ccess
ss word
at tach
lo aded
ex ec
local host
Ġ', ',
Ġinstanti ated
mi c
compati bility
sys id
append list
pub id
])?\.)+ (?:[
exist s
Ġsuccess ive
1 6
B oundaryIter
C ODE
M em
X ml
a ction
c ull
i tion
i ted
m ro
m time
st ore
od ay
Ġd st
Ġd ot
ter BoundaryIter
Ġ% %
oolean Field
Ġpro hib
set state
ĠB ooleanField
ĠIn terBoundaryIter
Ġal ter
qui re
ĠP ython
initial ize
ati ves
separ ator
To One
Ġdefin ition
wn load
MO VED
ĠDefused Xml
Ġprohib ited
ĠDefusedXml Exception
$ "
' :
M ultipart
O TI
S erializer
Ġi mage
Ġre set
Ġt z
Ġto ge
Ġb etween
Ġp ot
ad ing
par sed
ĠI t
ĠE MAIL
Ġmod ify
Ġus age
Ġtoge ther
B ID
C hoice
D ER
E F
M m
N n
N AL
Y y
b EF
d umps
f d
f name
i er
t x
el ated
Ġc tx
in ator
Ġin stalled
Ġp at
Ġsub mod
Ġm ultipart
Ġu class
ag inator
Ġco uld
Ġfield name
set list
Ġse tup
pli text
path s
ON E
iter lists
iter compat
pro perty
Ġiter lists
Ġiter compat
mple ment
command s
ĠModel Choice
ĠR elated
help text
Ġrun fastcgi
Ġmap ped
Ġz ip
Ġ'-- -
ĠSplit DateTimeField
tif ier
Ġsocket server
Ġsing ular
ĠSEC URE
ĠAuto Field
Mm Nn
bEF MmNn
ĠModelChoice Iterator
ĠRelated Object
f ault
Ġc lient
Ġre cursive
Ġin line
Ġpro cess
ĠDe fault
out log
Ġformat ted
Ġ- =
block s
Ġseri alized
save d
Ġ'| '
err log
Ġhex digest
pid file
? )-(\
N om
S O
T oken
b ad
c nt
c ip
i ent
} )-(\
te nsion
re r
el en
Ġf cnt
or k
ti o
de rer
Ġc gi
the xt
in ates
Ġb p
time until
Ġpa thext
ĠC ACHE
set default
Ġse ek
TA TION
ma y
Ġcommand s
ĠBase Command
Ġmax lin
ys tem
Ġnumber s
Ġid x
RO OT
ĠG enericIPAddressField
ĠMultiValue Field
ĠURL Input
AN DLE
ili ties
Ġlet ters
populate d
cached Cache
Ġover la
Ġpossib ility
Ġpossib ilities
ĠSuspicious Operation
CRE ATE
ĠCon tent
ĠDefault s
Nom inates
cip ient
Ġfcnt l
Ġmaxlin elen
' (?:
A rchive
L Y
_ .'
m d
n orm
r split
Ġthe ir
Ġ' }'
Ġ' }'.
Ġsu re
Ġcon si
Ġfunction s
Ġ" ^
Ġ'% }'
Ġ'% }'.
co mm
Ġpa ir
ĠM A
'" '
Ġ'{ '
Ġ'{ '.
Ġ'. '.
_. '.
abcdefghijklmnopqrstuvwxyz ABCDEFGHIJKLMNOPQRSTUVWXYZ
Ġ'| '.
Ġ'# }'
Ġ'# }'.
Ġ'} }'
Ġ'} }'.
Ġ'{# '
Ġ'{# '.
Ġ'{% '
Ġ'{% '.
Ġ'{{ '
Ġ'{{ '.
ali as
INTER NAL
Ġconsi sting
# -
3 6
C alling
H ttp
M IN
S I
c c
c it
p ri
s alt
s Metaclass
z ero
Ġi mpor
te cted
Ġan s
ar ative
Ġp end
Ġp aginator
Ġex pli
con di
Ġas sert
ri ter
AR Y
ĠTemplate Loader
ĠC ODE
en tity
pre pare
OR AGE
Field sMetaclass
ĠDe cl
ĠM IN
ĠType d
ĠĠĠĠĠĠĠĠĠĠĠĠĠĠĠĠ ĠĠĠĠ
ĠĠĠĠĠĠĠĠĠĠĠĠĠĠĠĠ ĠĠĠĠĠĠĠĠ
ne ToOne
MP LE
local e
Ġevalu ated
FORM S
De cimal
Ġcolle ction
col on
MA X
ĠO neToOne
UN KNOWN
PP ED
VER LA
ĠEx ternalReferenceForbidden
Ġdid n
allow s
non zero
Ġac cess
Ġpri mary
Ġdefin ing
LOADER S
ĠMA X
cit ly
Ġimpor ting
arative FieldsMetaclass
Ġpend ing
Ġexpli citly
ĠDecl arativeFieldsMetaclass
ĠOneToOne Field
VERLA PPED
I S
M iddleware
\ [
r ange
| \[
Ġf n
al tern
in teractive
Ġsel ected
le ss
__ ',
Ġcall ing
Ġ1 6
Ġtime s
max requests
Ġblock s
Ġsys tem
Th read
ren dered
Ġcycle vars
, ]+
1 1
2 6
3 1
A P
A V
A IL
A ILED
B y
B LE
C lass
C TED
C TATION
D EN
D Forbidden
E G
E le
E ADER
F IABLE
F AILED
G RA
G HE
G ATEWAY
G ONE
H O
I AL
I ENT
I CE
I CES
L IC
M in
M ax
M EN
N ON
N ET
N DED
P LE
P ART
P END
P AY
P ERMANENT
S UPPORTED
S WI
T CH
T ORAGE
T DForbidden
U RI
V E
V ICE
X TE
Z ED
d ry
p tions
s elf
t ty
Ġ ter
Ġ RAN
Ġs al
Ġi mmutable
te ct
ti cal
Ġ' ?
Ġin fo
Ġres ource
ĠN EG
Ġ" ----
Ġ2 01
Ġ2 26
Ġun known
ĠF OUND
ri tical
Ġ3 00
ser List
no tes
TE MP
TE CTED
ĠS AT
ĠS ER
ĠS upported
ĠS UPPORTED
ĠS TORAGE
ĠC HO
IN UE
IN FO
IN SU
OR ARY
Ġ4 18
Ġ4 01
Ġ4 31
py cache
Ġnew headers
TA TI
TA BLE
ĠH EADER
ĠM AN
ĠM ODIFIED
ĠM orsel
SE E
ĠU serList
dec l
ĠA CCEP
Ġdo cs
ATE S
max length
AL RE
LO OP
ĠI MPLE
ĠL ONG
RE SET
RE SER
LOCK ED
Ġ5 10
Ġ5 04
Ġ5 01
Ġ5 11
ĠE XTE
ME TH
Ġ10 1
Ġ10 2
ĠP ERMANENT
ĠTE AP
FOR BID
Ġvariable s
01 1
ĠRE PORTED
ĠDE PEND
ĠDE TECTED
Ġ40 2
Ġ40 6
Ġ40 7
Ġ40 8
Ġ40 9
IC IENT
ĠG ATEWAY
AD Y
TH ER
UP GRA
ĠUN AV
VAR IA
FORMAT ION
ĠO THER
Ġ20 2
Ġ20 3
Ġ20 5
Ġ20 6
Ġ20 7
Ġ20 8
Ġ30 3
Ġ30 5
Ġ30 6
Ġ30 7
Ġ30 8
PRO TOCOL
PE CTATION
File Field
UN PROCESS
UN AUTHORI
UN SUPPORTED
ĠAL SO
ĠEmail Field
Ġcookie dict
Ġ50 2
Ġ50 3
Ġ50 5
Ġ50 6
Ġ50 7
Ġ50 8
Ġ41 1
Ġ41 2
Ġ41 3
Ġ41 4
Ġ41 5
Ġ41 6
Ġ41 7
Ġ42 2
Ġ42 3
Ġ42 4
Ġ42 6
Ġ42 8
Ġ42 9
PROCESS ING
ycle Node
Ġ'^ [\
ĠUSE D
SER VICE
ĠIN FORMATION
ĠBaseModel Form
Ġyes no
TO O
CONT INUE
---- -
EX PECTATION
expi re
WOR K
FF ICIENT
Ġlog ger
ĠFIELD S
ĠREQUEST S
ĠPRO XY
ĠPRO TOCOL
MULTI PLE
AUTHORI TATI
CONF LIC
Ġdivisible by
ENC Y
STAT US
ACCEP TED
OTI ATES
may be
CREATE D
comm a
Decimal Field
IS FIABLE
AIL ABLE
GHE ST
MEN TED
NET WORK
PART IAL
PAY MENT
SWI TCH
ĠRAN GE
Ġsal ted
ĠNEG OTIATES
Ġ"---- -----
TEMP ORARY
ĠSAT ISFIABLE
ĠSER VER
ĠCHO ICES
INSU FFICIENT
ĠMAN Y
ĠACCEP TABLE
ALRE ADY
ĠIMPLE MENTED
RESER VED
ĠEXTE NDED
METH OD
ĠPERMANENT LY
ĠTEAP OT
FORBID DEN
ĠDEPEND ENCY
UPGRA DE
ĠUNAV AILABLE
VARIA NT
UNPROCESS ABLE
UNAUTHORI ZED
ĠPROTOCOL S
AUTHORITATI VE
CONFLIC T
SWITCH ING
) .',
S MTP
Ġs ame
Ġc ase
Ġde p
Ġde script
Ġsubstitute d
Ġget value
Ġlo ck
ĠS MTP
Ġsign al
Ġprefix ed
TI C
Ġextra ct
seri alize
run ner
Ch arField
Ġdescript or
" $
" ([
( ^
* "$
0 3
0 10
: \.
A PP
F loatField
G enericIPAddressField
L P
N S
N ullBoolean
P T
R S
S plit
S lugField
T Z
[ ([
] -\
^ "([
i ther
n c
v counter
| ^"([
} "
} |[
Ġ 64
Ġ EntitiesForbidden
Ġs er
te mp
re vcounter
Ġc ustom
Ġre ferences
se tup
Ġe vent
Ġe ither
Ġ' +
Ġb in
Ġstr ftime
Ġvar list
In tegerField
Ġpa d
ĠD NS
Ex pi
Ġend less
\\ [\
ĠBase FormSet
compile d
Ġpk s
prefix ed
Ġtrans action
bo se
Co mboField
Ġstate ment
Value Field
]) *"$
Date Field
]+ (\.
Time Field
File PathField
Ġwsgi ref
ature Expi
HE LP
URL Field
[\ ]-\
Ġdis position
mpor ary
-\ [\]-\
Ġmime type
ments By
arch ive
ĠHttp Request
multipart parser
ĠLo ader
ĠSign atureExpi
Regex Field
ĠOR DER
Email Field
!# -\[\]-\
24 7
]| \\[\
ĠSuspicious Multipart
pub lic
]+) *
]+) \]
Typed ChoiceField
Typed MultipleChoiceField
,}(?<!- ))
Multi ValueField
Tag Name
Image Field
pp Command
mic rosecond
Ġcollection s
Ele mentsBy
(^ [-!#$%&'*+/=?^_`{}|~
03 7
:\. ]+)\]
NullBoolean Field
Split DateTimeField
|^"([ \
]+(\. [-!#$%&'*+/=?^_`{}|~
ĠSignatureExpi red
ĠORDER ING
ElementsBy TagName
:\.]+)\] $'
M any
d u
Ġre n
Ġre cipient
Ġn ormpath
Ġp lat
pa ssword
as var
view s
doc s
Ġloader s
lin k
Ġplace s
$ ",
' s
) (\.
/ /'
= (),
A ttribute
R OM
_ ]+
a ught
k d
v ary
w in
y ph
} ,
re lated
Ġf our
le ading
Ġde scrip
unc aught
Ġsu ffix
Ġsub command
ang es
Ġh ap
Ġh yph
ĠD ATE
en s
clu ded
Or der
create dir
Ġ': //'
Ġread ing
Ġmod ul
mt ree
Ġexec ute
Ġ'^ %
ĠError Dict
Ġformset s
)) {
ĠModelForm Metaclass
av ailable
ĠJSON Serializer
Ġattach ment
serializ ationError
)(\. (
Ġdescrip tion
Ġhap pen
Ġhyph ens
' ='
B ASE
h ex
s of
u le
re quire
on g
Ġre al
le st
Ġ" ."
to tal
ck FileEx
Ġform ating
Ġch anges
ĠC ache
Ġen clo
ĠĠĠĠĠĠĠĠĠĠĠĠĠĠĠĠ ĠĠĠĠĠĠĠĠĠĠĠ
Ġr ule
Ġop s
LO AD
col or
Ġsmal lest
UP LOAD
reg istered
backend s
Ġpot file
condi tions
Ġdep s
sof t
Ġenclo sing
Ġrule s
4 3
4 43
8 0
F u
L S
N ING
S S
S e
S imple
T LS
V ID
b p
c orrect
f set
f ound
h lo
m c
o format
p ped
s ame
Ġa rchive
Ġs s
re st
el se
Ġre ference
Ġ' .%
Ġd on
Ġsub dir
Ġsub widget
Ġdi c
pa gin
Ġname s
Ġget list
Ġget In
ble m
Ġh file
di tional
Ġbase dir
co me
lib mc
mm y
error list
Ġse cre
Ġnew header
Ġdo wnload
Ġurl s
Ġcode d
ĠBase Mem
Ġbe come
Ġinput s
En tity
cl Handler
decor ators
Ġpo file
ture Handler
match es
ĠP a
Ġparent mod
NO TP
cur ity
Ġgroup by
encode s
De clHandler
RI TIC
RO VID
second s
TH ON
Ġpy libmc
Ġfilesize format
ĠStop Fu
:/ /'
POR T
non field
ner Text
Ġprodu cer
fl ush
Ġcomb ined
Ġad ditional
mtime s
Ġoverla pped
#- #-
Http Request
pri vate
ĠLoader Origin
ĠSuspiciousMultipart Form
Simple Cookie
correct ly
same file
pagin ator
ĠgetIn nerText
Ġsecre t
ĠBaseMem cachedCache
tureHandler s
NOTP ROVID
RITIC AL
ĠStopFu tureHandlers
NOTPROVID ED
F I
P A
e ed
o se
t form
u th
w ork
de v
Ġre fto
in dent
Ġe ve
Ġsub mit
Ġme rge
Ġint rospection
ata ble
pla tform
Ġst ar
Ġup loaded
ĠS ystem
Ġconver ter
Ġdata structures
ĠA ppCommand
Ġro und
Ġoccur red
hi nt
int rospection
ĠLo ckFileEx
migr atable
hex digest
work dir
" ^
' ve
' \\
) \.
- ]*
/ ?
3 2
6 1
? [
? )|
E qual
I ST
R en
R UN
\ -]*
a mple
b oolean
b ly
c ord
f cgi
r ing
s ad
| '
Ġs plitext
el l
Ġde tected
ing Mix
unc tion
Ġin cr
at ty
ode tect
ut odetect
con n
cep t
ca use
ĠF ast
and user
Ġ3 2
time stamp
Ġca used
ĠC ritical
end if
ĠB ound
ĠIn fo
ba bly
ĠM em
Ġpre tty
Ġop t
ĠBase Form
LO C
RE DIRECT
Ġon ce
ĠUn able
'" .
Ġk lass
Template Response
Ġclean up
(?: :\
\. \-]*
ĠText area
ĠSimple TemplateResponse
Ġread lines
Ġper mission
ĠIP AddressField
ĠRegex Field
Ġspec ified
could n
URL CONF
FIELD S
po s
ĠFile Base
whi ch
Ġ'^ /'
ĠPY THON
run fastcgi
Ġplur alize
ftp s
WSGI RequestHandler
fore ver
}\. ?|[
EX IST
thread s
PRE FI
'^ /'
ĠLocaleRegex URLResolver
,}(?<!- )\.
?|[ /?
:]+ \]
altern atives
Ġmodul us
soft ware
Ġdic titem
Equal Node
sad di
ingMix In
utodetect or
ĠFast CGI
ĠBound Field
\.\-]* )
ĠPYTHON PATH
PREFI X
,}(?<!-)\. ?)|
?|[/? ]\
& ',
) ".
/ ',
a nt
i cal
k len
o lated
Ġf s
de compress
se ek
Ġt wi
Ġ' &'
Ġ' &',
tr ib
Ġb ring
con trib
ĠDe serializationError
data structures
out box
ĠĠĠĠĠĠĠĠĠĠĠĠĠĠĠĠ ĠĠĠĠĠĠĠĠĠĠĠĠĠĠ
Ġr mtree
django project
ati bility
mi ted
Ġcomp atibility
Ġsupport s
vir tual
utc now
Ġbackend s
Ġutc now
Ġ'] '
Ġbin ascii
Ġren dered
Ġstar ting
Ġtwi ce
( :\
- ]+
. -]+
3 5
3 04
? ://
C an
C CESS
D o
F C
M OD
M IME
N B
O f
O ptions
R un
S H
T ING
U LE
U sed
\ ])
e vent
g ing
i teral
j av
n ical
s iz
t ar
u d
u ble
th rea
de st
Ġc md
in stalled
Ġde ader
Ġe of
Ġis dir
ce back
er rno
Ġin it
Ġin cluded
ro y
Ġno tifier
Ġclass method
get list
con trol
nd Token
ch nical
ra tio
ur lencode
ĠF ROM
time delta
AR NING
nder ing
ĠC RITICAL
ĠM iddleware
Re ndering
SE C
ac tivated
ac cept
LE TION
Ġpre fork
Ġdo uble
Ġtime delta
red und
cre te
rea ting
max Request
max Ch
max Thread
Not Used
10 35
ĠI mplement
da ys
den ci
ĠE ndToken
DE CODE
sub type
sub dir
pen denci
Ġ10 34
ild ren
Ġprevious ly
ĠMulti Widget
ĠW ARNING
encode d
mi os
ĠDE LETION
Ġte st
ĠR FC
ĠO VERLAPPED
ĠAL L
HE RE
crip t
Ġda ys
ĠIN FO
rge Dict
Ġac tivated
Ġac cord
Ġoper ator
Ġposs ible
To Many
Ġlog ging
SU CCESS
:]+ \])
|\[ [
Ġter mios
microsecond s
kd temp
Ġss l
unction Type
.-]+ |\[[
?:// "
MOD ULE
TING S
siz es
threa ded
dest roy
urlencode d
ĠMiddleware NotUsed
redund ant
maxRequest s
maxCh ildren
maxThread s
ĠImplement ation
pendenci es
Ġaccord ing
:]+\]) (:\
A LE
f lo
r up
t oday
Ġs ample
Ġt oday
le vel
Ġd klen
Ġun lock
ex tract
ĠS e
ĠDe serializer
ĠM any
lock FileEx
us able
Ġk nown
Ġdomain s
Ġmake dirs
Ġ'\\ ',
Ġfilename s
Ġnorm case
Ġrun ning
Ġ'" %
ĠTh at
Ġ'] ',
Ġ'? '
Ġrecipient s
0 7
3 8
; .
A CK
B ACK
C ycleNode
D S
D en
F RA
G MENT
H ANDLE
O ENT
W rap
a decimal
c ustom
h r
i func
o w
t c
w is
w atch
} ://
} >{
Ġs av
el ow
de pendencies
Ġc types
Ġt ail
la st
Ġn args
Ġn ud
er mission
Ġb elow
Ġp as
Ġp age
text area
ĠN ame
str ftime
ex haust
ex tension
Ġca hr
Ġwh en
EN OENT
Ġother wis
ĠD TDForbidden
che cked
ĠS lugField
Ġg ive
Ġj ython
SE CON
SE CRE
ac cessor
ne cted
Not Found
RE T
Ġdoes n
Ġpo pen
ĠE vent
meta class
ĠP ermission
named CycleNode
Ġcomm on
Base Cookie
wrap per
HTTP S
DATE TIME
Resolver Match
ĠCo mboField
ĠFile PathField
Ġmime types
ren derer
formset s
Ġdirname s
ĠTh is
lic ting
Ġhex adecimal
Ġsh ell
ĠSEC RET
tual ly
Upload Handler
Mix in
exec ute
Ġ'--- '
Ġ'--- '.
Ġinline formset
Ġans wer
Ġ16 38
Ġ'+ '
LOC ALE
SEC URE
07 3
BACK END
Den ied
FRA GMENT
HANDLE RS
Wrap per
}:// {
Ġsav ing
Ġpas sed
Ġgive n
SECON DS
SECRE T
ĠEvent Handler
ĠPermission Denied
namedCycleNode s
Ġ1638 4
' (\
) >"
/ #
d Cache
g ate
l ru
w b
Ġ &
re quires
el ls
Ġf oreign
Ġc mp
st at
Ġ' (\
et ch
Ġex tras
Ġpro blem
Ġpro bably
par ate
ĠB lock
ĠM IDDLEWARE
date s
ne gate
Ġdate s
max size
AL LOWED
Ġbe cause
ĠUn lockFileEx
Ġx range
read line
Ġserializer s
?) $'
?) $',
ĠTyped ChoiceField
ĠFileBase dCache
( %
= {}
C reating
D on
E scape
I PE
L ast
L ICATION
L ONG
L HttpRequest
M LHttpRequest
O FF
X MLHttpRequest
[ _
a j
d s
e a
e ve
g istry
i ckle
i eve
n ation
o ck
o per
p ot
p ires
s h
s v
s y
s tion
s Node
s ole
u mmy
Ġ Oper
Ġs tu
Ġs cript
Ġi mplement
re tr
Ġre port
Ġre du
in k
in ation
ar Archive
Ġde vel
Ġis file
ing Class
pe ar
sti nation
ct ype
ĠT arArchive
il low
Ġm time
Ġm ali
Ġm sv
Ġex clus
Ġex tension
ca st
Ġ_ ,
str ip
Ġh mac
Ġap pear
Ġ1 1
di nt
bu f
Ġ'% %
pend ing
per mission
Ġby ref
ir y
Ex ternalReferenceForbidden
Ex pires
ĠS kip
ĠC ookie
ĠC om
en tities
Ġse curity
Ġ4 9
op t
ĠH ANDLE
Re start
Re gistry
SE LE
LE TE
ĠU LONG
Ġurl retr
Not Ren
tend sNode
ĠL iteral
Ġexp iry
ĠSafe MIME
DE LETE
ĠP IPE
ĠP illow
base Cache
ho me
RL ock
anged Node
De fin
ET ag
sign ature
Lo ck
Ġte mporary
ĠURL Field
Cookie Error
dered Error
si de
write able
OD ING
Ġtable name
ĠStop Upload
of fset
log ger
Ġac tiv
ĠIf Parser
ĠIf Ch
Ġbuf fer
ĠMedia Defin
Ġshould n
Control Node
Ġreceiver s
ĠAuto Escape
Ġcomb ination
Multi PartParser
WI TH
ENC ODING
Image File
cr t
ĠMigration Loader
attach ment
ĠContent NotRen
APP LICATION
PT R
Ġfour th
Entity DeclHandler
ĠSystem Restart
jav a
Ġinit list
ĠMany ToMany
OFF SET
aj ax
oper s
stion er
ĠOper ator
Ġstu ck
Ġredu ce
Ġdevel opers
Ġmali cious
Ġmsv crt
Ġexclus ive
ĠSkip File
ĠCookie Error
ĠCom mentNode
SELE CT
Ġurlretr ieve
ĠPillow ImageFile
Ġactiv ity
ĠIfCh angedNode
ĠMediaDefin ingClass
ĠAutoEscape ControlNode
ĠContentNotRen deredError
; "
D id
I GHEST
n ormpath
re rror
Ġf un
al k
Ġw ere
Ġfunction al
ca sca
Ġ1 3
Ġor dered
ĠS I
Ġpro g
function al
ĠH IGHEST
ml ink
us ing
ly ing
su re
Ġ5 9
Ġ"\\ "
Ġsto red
Ġ'" %(
Ġaltern ative
ĠMe rgeDict
HI GHEST
sequence s
ĠTyped MultipleChoiceField
,]+ $'
,]+ $',
Min ValueValidator
Min LengthValidator
Max ValueValidator
Max LengthValidator
Ġ"--------- "
Ġplat form
buf fer
Ġfun tion
casca de
" (^[-!#$%&'*+/=?^_`{}|~
' (?:[
' |^"([\
. !
? .!
C L
C Cache
E MPTY
L ib
M anagementForm
M CCache
N eed
P age
P ickle
R el
U sing
] '
f re
f am
g ger
h eight
i th
m cache
s el
s plitext
w riter
y Lib
} .
Ġ qual
Ġa uth
Ġs yntax
Ġf ul
Ġf etch
Ġre st
Ġw riter
Ġ' (?:[
mp ere
Ġin side
Ġb cc
ĠN an
il y
Ġm a
get ElementsByTagName
Ġ" (^[-!#$%&'*+/=?^_`{}|~
Ġ" |^"([\
ver bose
Ġun ifunc
Ġget ElementsByTagName
Ġle d
ig nored
ix path
Ġne ver
Ġlo gi
que nc
ĠTemplate Tag
Ex it
Ex pat
ĠC srf
IN ET
'. '
Ġg o
Ġse e
Ġdict value
fix es
Ġformat ting
Ġurl safe
Ġcode cs
ĠBase Loader
ĠI E
django js
Ġbe ing
Ġbe ha
ĠRe group
do wnload
Ġ'\ [([
Ġver bose
Ġpk g
rap h
Ġsepar ators
url safe
ĠP IL
ĠP yLib
over write
Ġpos ixpath
Ġta mpere
Base Converter
Ġ': ?.!
sign al
Lo gger
Un known
Ġconf ig
parent loop
Ġl bp
Ġsup ported
File UploadHandler
Ġpython rc
ph one
ph ans
ĠFile Input
ĠFile Pro
ĠFile Wrapper
conver ter
'\ [([
Ġ7 9
GN ING
xy Mixin
TYPE S
Ġer r
Ġsy mb
ĠImage Field
ĠImage File
Token Node
])*"$ )"
])*"$ )'
]+)* $"
]+)* $",
,}(?<!-)) $'
,}(?<!-)) $',
ĠCache Class
permission s
fre quenc
fam ily
sel ected
Ġqual ified
Ġful ly
ĠTemplateTag Node
Expat Parser
ĠCsrf TokenNode
ĠRegroup Node
ĠPyLib MCCache
Ġtampere d
ĠFilePro xyMixin
frequenc y
? "
D is
c el
u c
} "'
} )"
} $'
} $',
} )".
Ġre quire
Ġw alk
Ġin form
Ġcon crete
Ġm ix
Ġset s
Ġ" -
Ġle ave
Ġvar s
ser ve
Ġch ange
Ġtag type
error handler
Ġal ters
load s
gs l
group dict
Ġgroup dict
Ġseri aliz
ĠFILE S
Ġ'^ (
Ġ'^ [-
'^ (
'^ [-
Ġ'/ ',
attach ments
_]+ $'
_]+ $',
ĠBlock Node
Ġsymb ol
Ġinform ation
* '
5 00
> ".
A n
A pp
C RI
C lient
D TDForbidden
G ER
J ANG
O OL
O VERLAPPED
P OVERLAPPED
S CRI
U DE
Y our
Z E
] "
b in
c ular
d rive
e ss
e hlo
f s
f handle
g ro
l ong
m ment
m igration
p to
p atch
p gettext
r andom
s ue
s Error
u per
u tually
v id
v oid
w sError
Ġ od
Ġa utodetector
Ġs or
te mporary
re group
el if
Ġf ext
or Node
Ġc r
Ġc ir
Ġc Pickle
Ġre start
Ġre lated
Ġre fs
Ġthe file
in do
Ġw m
Ġw ind
le ep
ar tif
un i
Ġe a
Ġe hlo
Ġis oformat
Ġis atty
Ġis sue
Ġn m
Ġ' .__
Ġo ur
ul ong
ter rup
Ġb ot
Ġme mcache
Ġm utually
ta ined
ut or
Ġ" ="
ver sing
pa cel
Ġun ix
ch mod
ur al
Ġra tio
ĠF irst
ĠF orNode
Ġh len
Ġco ver
Ġco mple
Ġco mment
to m
is ible
is oformat
Ġdec r
Ġ'% '
time Warning
In ternal
In terrup
Ġlo aded
que ue
Ġst rerror
Ġth ose
ĠS ET
ĠS si
Ġpro vid
ĠC lient
ĠC ycleNode
attr ib
Ġfile no
IN E
IN OT
IN CL
ST AL
pre vious
Ġse nt
ĠB OOL
py c
py o
ry pto
Re versing
LE D
AT OM
Ġ- -
Data baseCache
file no
kup Error
00 00
ĠBase DatabaseCache
Ġv isible
ĠL POVERLAPPED
IF Y
Ġpop ulate
ard Interrup
ĠToken Base
Ġid string
Ġcol span
url patterns
Que stioner
ĠKey bo
Ġmin imal
Th at
Ġhttp s
callback s
ĠW indo
ory FileUploadHandler
De stination
() !
host name
pl ural
MA IN
ĠField Error
Ġ/ ><
csrf middleware
ĠStr uc
SET TINGS
=' {
USE R
REQUEST S
=" %
Ġ'^ ([
NA GER
ĠCheck Registry
ĠLoo kupError
Ġaltern atives
Regex URLResolver
ĠIf Node
width ratio
ener ator
ENG INE
If Node
If EqualNode
Ġabspath u
serializ ation
os fhandle
ssword Input
Ġdot ted
ROOT S
Ġpair s
MIN S
SI ZE
SMTP Exception
ĠSMTP Exception
APP S
nc db
}" >{
SS WORD
ĠPa rent
ĠPa sswordInput
PA SSWORD
Ġeve ns
ĠMem oryFileUploadHandler
Of Node
event s
dint o
ĠManyToMany Field
Did n
Ġlogi cal
Ġconfig ure
JANG O
SCRI PT
gro uper
Ġod ds
Ġsor table
Ġcir cular
Ġwind ll
Ġbot tom
pacel ess
Ġunix from
ĠFirst OfNode
ĠSsi Node
Ġprovid ing
INOT IFY
INCL UDE
STAL LED
ATOM IC
Ġpopulate d
ardInterrup t
ĠKeybo ardInterrupt
ĠWindo wsError
csrfmiddleware token
ĠStruc ture
NAGER S
' \\'
/ ",
/ ?|[/?]\
? )'
E EXIST
[ ?[
d ump
d itable
g ain
u time
} ',
} |\[
} |'
Ġ Z
Ġ ROOT
Ġa to
Ġa gain
Ġw ork
Ġt ree
Ġe ditable
Ġis abs
Ġin ter
Ġb oo
li mited
Ġ" (?:[
Ġ" ?|[/?]\
Ġlist dir
is olated
Ġderive d
Ġout box
pli ed
ĠĠĠĠĠĠĠĠĠĠĠĠĠĠĠĠ ĠĠĠĠĠĠĠĠĠĠĠĠĠĠĠĠĠĠĠĠĠ
file path
Ġexp anduser
ĠE EXIST
read ingMixIn
(?: (?:[
(?: /",
ĠP ro
Ġro unded
+) $'
+) $"
MA NAGERS
AD MINS
Ġ'- ',
Ġiteration s
exp anduser
Ġ'" ',
'\ [?[
ĠIN STALLED
ĠTh readingMixIn
:// (?:(?:[
'^ (?:[
+)? '
+)? (?::\
+)? (?:/",
])?\.)+ ",
serializ able
?) (?::\
FILE S
Ġad ded
Ġsy mlink
STAT IC
cycle vars
'(?: (?:[
'(?: :\
'(?: /?|[/?]\
Ġ"^ (?:[
Thread ingMixIn
Ġ'? ',
Ġser ve
Ġeve n
'\\ "'
'\\ \\'
:]+\] ?)'
:]+\] ?)(?::\
\.\-]*) ://'
\.\-]*) ://(?:(?:[
,}(?<!-)\.?)| '
,}(?<!-)\.?)| \
Ġserializ able
Ġea ther
}|\[ ?[
Ġato mic
Ġboo len
# #
' re
* ,\
0 5
: '
C re
C lean
D IA
E nt
F rame
F unctionType
H N
H JKLM
L C
M orsel
N ER
N PQRSTUVWXYZ
P rint
R ati
T ells
U HN
W HERE
W Lock
X Frame
a ceback
c ing
c li
f m
f ragment
h n
i den
i mited
j ack
m n
m ime
m col
m kdtemp
n ied
o mm
o Node
r t
t name
u hn
w arning
y ing
} ="{
Ġ unc
Ġs ha
te chnical
re moved
Ġf ea
al ly
ti ce
ti ns
Ġre pla
Ġw on
st alling
un der
Ġde nied
Ġis olated
ce d
Ġ' $'
Ġd ry
Ġin fix
Ġin otify
Ġp lease
Ġsub type
ine s
Ġm ani
Ġm kdtemp
Ġex ternal
get attr
get pid
get Attribute
Ġtr aceback
con nected
Ġ2 3
Ġu path
Ġu su
fe st
Ġ% }
Ġget pid
Ġget Attribute
ĠF unctionType
Ġh te
Ġco erce
Ġint rodu
to equal
Ġle arn
ck jack
is tent
is atty
Ġ1 2
di rname
Ġbase dirs
Ġ3 1
per fork
qu it
que rt
TE ST
ĠTemplate If
Ġpro tected
pre fork
pec ting
Ġse qs
Ġen sure
vi ors
Ġ{ %
ĠA ll
source s
ne ver
OK UP
Ġop tins
LO OKUP
Ġdel imited
ĠL UHN
Ġon error
Ġat tname
def ines
tra ceback
Ġcopy stat
uld n
ME SS
ME DIA
ĠP age
ĠP open
ĠP lease
Ġwhi te
ĠW idth
ĠW HERE
Ġfiles ystem
Value NotFound
col umn
.% '."
.% '.",
Ġconf licting
Ġte chnical
ĠR WLock
Ġmod ified
trans action
Ġskip ped
Ġl strip
ĠFilter Node
Ġ'- _'
Server Dis
Ġexec utor
ĠCo uldn
UT F
Ġrun ner
VER SION
fin al
Ġ", "
ĠEx tendsNode
OD D
Ġmulti plied
Model Form
ĠModelForm Options
abcdefghijk mn
Bad Signature
ĠIf EqualNode
AGE S
ABCDEFG HJKLM
No tice
DI R
DI RS
Per mission
Ch eck
ABCDEFGHIJKLMNOPQRSTUVWXYZ abcdefghijklmnopqrstuvwxyz
mark up
wn loading
Up loaded
+)? $"
+)? $",
Ġattach ments
com ment
ACCEP T
IM ODE
ĠPython Serializer
Ġmultipart parser
Ġoverla ying
Ġ"^ ([
Ġter mcol
Ġ"--------- ",
Ġlock s
Ġhappen ed
"^ ([
RUN NER
ĠMem cachedCache
Do wnloading
Options Middleware
Run ning
sy ncdb
05 4
Clean ing
Ent ry
NPQRSTUVWXYZ abcdefghijkmn
Print s
Rati oNode
XFrame OptionsMiddleware
cli ckjack
fm ts
iden tifier
omm on
Ġunc ommon
Ġfea tures
Ġrepla cing
under lying
Ġmani fest
Ġusu ally
Ġintrodu ced
toequal s
quert set
ĠTemplateIf Parser
MESS AGES
ĠWidth RatioNode
ValueNotFound Exception
ServerDis connected
ABCDEFGHJKLM NPQRSTUVWXYZabcdefghijkmn
Uploaded File
Ġtermcol ors
clickjack ing
ABCDEFGHJKLMNPQRSTUVWXYZabcdefghijkmn pqrstuvwxyz
' --
/ %
P ER
a uth
a dinto
b id
k s
m ulti
m ultiple
n etloc
o ks
s ha
v ing
Ġ like
Ġ ENOENT
re lease
Ġf eed
or ies
de construct
Ġc ar
Ġre adinto
Ġarg v
ar li
Ġe arli
Ġo uter
__ '.
Ġm k
arg v
Ġdi ction
Ġget c
Ġle ading
Ġ1 7
Ġ1 8
Ġor phans
ri age
Ġbase d
Ġlo oks
que ries
ad min
ir tual
ĠD oesNotExist
par ameter
Ġv irtual
load name
dir path
Ġso ft
from timestamp
Ġwrite lines
De serializer
ĠG enerator
Ġconf igured
ĠModel Field
Ġload name
Ġdecon struct
Ġserver s
make dirs
Ġ'-- ',
Ġdirect ories
LANGUAGE S
Ġ'/ '.
Ġ'/ /',
Ġ'/ /%
Ġfn match
altern ative
Ġtest s
ĠSe e
ĠSe parate
Ġbeha ving
Ġcomple te
'-- '
release s
Ġcar riage
Ġearli er
Ġsoft space
" ).
" >{
* $'
2 56
7 00
> /
A utodetector
C ritical
D ns
E TAG
F rom
H ig
H IN
M igration
O ID
O INTER
P attern
R awPostDataException
S Y
S ta
S TE
V OID
\ '
_ ',
a time
a tively
a ched
b ar
f oo
f Handler
g n
g raph
m s
m y
n To
s ile
t art
t HIN
x b
y mo
y ou
Ġ En
Ġ #-#-
Ġ RLock
Ġs ting
Ġi mp
re start
on ymo
me t
or ing
or king
de t
Ġc or
Ġc losed
Ġw orking
se curity
ment Error
un ion
la tions
an ize
an age
an onymo
mp t
rn el
Ġd ummy
Ġin stal
tr ing
Ġsub widgets
thod s
Ġcon nected
Ġstr func
Ġstr ign
il l
Ġm ask
Ġm anage
it alize
arg parse
Ġ" (%
Ġname list
Ġun parsed
ject Sta
ĠF ound
Ġh um
Ġh its
Ġh ref
mpty Page
Ġbase type
Ġbase http
as h
co gn
qu ash
EN CE
ĠD ata
ĠD ummy
ĠD JANGO
Ex trac
Ġpro mpt
ĠC ached
end block
IN ITIAL
ign oring
ion Error
OR DER
ĠB OM
Ġrender ing
ĠIn clude
ĠIn teractive
ĠIn Mem
ĠIn stalling
Re fHandler
LE MENT
conf licts
ĠĠĠĠĠĠĠĠĠĠĠĠĠĠĠĠ ĠĠĠĠĠĠĠĠĠĠĠĠĠĠĠĠĠĠĠĠĠĠ
Ġpre form
Ġmodule s
Ġr bp
ĠBase Archive
iter values
ĠI s
RE LOADER
Di vis
ĠInvalid Cache
CK S
ATOR S
ĠUn ion
do ctype
Ġk ind
Ġlocal part
ĠE mptyPage
Input StreamExhausted
Ġtype cast
ĠP OINTER
ĠP VOID
base d
base http
Ġmake migrations
ory UploadedFile
Base Form
Base FormSet
De bug
Un icode
ste mp
ĠR UN
anag ed
trans fer
Ġwidth ratio
ĠO PER
ĠString IO
Ġbegin s
ĠRegex URL
UN ION
Ġmeta var
ĠURL Node
igu ous
Conf licting
seri ous
ĠDjango Run
ĠCommand Parser
Sign al
si der
extend s
HttpResponse Not
IL ENCE
Ġsize of
Ġunders core
viron mentError
abs path
ero Divis
). \
Ġsi o
Ġcap italize
of f
Ġ'" \\
Ġ'^ [_
Ġpickle Pro
Backend Error
ternal Entity
Inf o
Ġaltern atively
TO TAL
Ġ100 0
Ġgue ss
Ġzero s
Ġremov ing
CHE CKS
sys random
Me dia
Me thods
Ġinclude s
Ġtmp dir
'^ [_
ĠCon sole
ĠCon sider
dj cache
ĠMigration Autodetector
system restart
Ġsy ms
serialized Object
ĠPython Deserializer
parsed EntityDeclHandler
pri mary
du mmy
ĠCache Entry
Se parate
#-#- #
conn ect
Do ctype
Of fset
ĠName Error
={} )"
={} )".
pot files
ĠSafeMIME Multipart
MultiPartParser Error
ith Node
Ġfetch one
Ġma de
ĠSET TINGS
ĠZ eroDivis
ĠPro jectSta
Check Message
Ġgetc w
ĠGenerator Exit
Dns Name
ETAG S
Hig h
Migration Questioner
SY STE
my project
sile nce
tart Doctype
tHIN T
ĠEn vironmentError
Ġ#-#- #-#-#
Ġimp orted
anonymo us
Ġinstal lation
Ġhum anize
cogn ized
ĠDummy Cache
Extrac ting
ĠCached DnsName
ĠInclude Node
ĠInteractive MigrationQuestioner
ĠInMem oryUploadedFile
ĠInvalidCache BackendError
ĠOPER ATORS
ĠRegexURL Pattern
ĠDjangoRun timeWarning
ILENCE D
ĠpicklePro tocol
ternalEntity RefHandler
ĠConsole EmailBackend
ĠZeroDivis ionError
ĠProjectSta te
SYSTE M
tartDoctype DeclHandler
" .'
' d
A F
A u
C O
D el
E LEMENT
b etween
b cc
e val
n ti
s up
u red
Ġa r
te ll
re cipient
the nti
Ġre name
Ġthe se
Ġ( '
se ssion
Ġn path
Ġ' `
ing er
er batim
ĠN OTI
Ġstr ig
get value
get Logger
Ġ" ;"
con crete
Ġu til
key Order
Ġkey Order
Ġget Logger
ĠV erbatim
Ġob tained
Ġbase name
co mb
Ġinstance s
Ġspace s
Ġth ree
ĠS erializer
ĠS inger
OR Y
ĠA F
lock s
Ġcontain sed
ssion Middleware
ĠBase Handler
Ġal one
pro g
space s
cation Middleware
config ured
base name
TI CE
NO TICE
port s
msg id
map ping
Regex Validator
chunk s
Message Middleware
Ġinver t
Ġcomb ine
SI GNING
condi tional
Ġbin ary
Se ssionMiddleware
rup ted
ĠSI GNING
Ġ':?.! '
Ġ':?.! '.
Ġdiction aries
Ġcor rupted
Au thenti
Del ete
sup ports
recipient s
session s
ĠNOTI CE
Ġstrig s
ĠVerbatim Node
comb ine
Authenti cationMiddleware
) ."
- '
. %(
: |
A I
B AT
C M
C OM
D R
E rro
E vent
F ROM
G T
J ust
M ORY
O p
S pec
S top
T OU
W AI
Z ONE
[ :|
] ".
` `
a ul
a tural
b ra
b om
b kd
c Mem
c rypto
c tring
e ch
e met
f lock
g z
g or
g ue
g od
i fe
i python
m odified
m db
m artif
n ch
n oo
n pgettext
o uld
s al
s leep
s martif
t val
u la
u ch
u men
x gettext
x FF
x istent
z ed
Ġs leep
Ġi l
te men
re ader
re tval
Ġf it
Ġf lock
al one
ti zed
Ġc rypto
Ġre ader
Ġre min
in cr
Ġw ould
Ġarg ume
Ġarg umen
ar no
val e
la table
la tized
Ġe v
Ġn atural
Ġto uch
Ġb reaks
Ġp id
Ġme s
Ġme an
ĠT ABLE
Ġex pecting
lo gin
Ġ" .
Ġel emet
cep table
pa wn
Ġun iver
ĠF FF
Ġh ad
Ġdefault filters
di c
di o
and Node
', )?
In cluded
Ġlo gin
Ġch mod
no args
no tation
no input
Ġwh at
Ġwh ose
ĠTemplate Command
Ex tendsNode
Ġup da
ĠS orted
Ġpro perly
ĠC RE
end blocks
start tls
Ġg raph
par tial
Ġpath sep
Ġen tity
Ġnew retval
Ġend block
Ġdict vale
Ġstart tls
Re turn
Ġvalid TemplateLibrary
dd s
ĠA dds
Ġmsg merge
Ġmsg attrib
Ġpre sent
Ġdo ctring
Ġr strip
path sep
Ġ'_ %
ĠBase Cookie
Ġmax imal
iter keys
Ġal gor
Ġrespec tive
ĠL ea
Ġare n
RE MO
En able
Ġextend s
Val idationError
ys temen
def aul
Ġver ify
copy ing
Ġsepar ation
sub widgets
ME MORY
files ystemen
Ġro le
NO DE
none xistent
Ġsm artif
pl us
]) :'
]) [:|
CH UN
ĠG ot
Un able
AD DR
Ġ/ >"
Ġ/ >",
Ġl uhn
Ġ'__ '
File Operation
ten coding
Ġexec utable
Ġflo or
HE XT
Ġfix ing
Ġfix tures
Ġdis patch
Ġexecu ting
ĠEx isting
HttpResponse BadRequest
msg merge
msg attrib
Ġtable names
Ġemail s
Ġconcaten ation
Ġcalc ula
Ġ'^ '
Ġ'^ ',
ĠLo cMem
IP S
Ġac tually
Ġac ceptable
comple ter
.. .\
handle s
EX E
dis patch
COL ORS
ĠMultiple ChoiceField
ĠSuspicious FileOperation
Ġmeth god
unpa cked
PAT HEXT
ĠNullBoolean Field
ĠDefused ExpatParser
Ġad min
Ġmicrosecond s
ignore nonexistent
exec utable
ToOne Rel
Ġpot files
BID I
fd s
ĠContent s
temp latized
Ġren derer
indent ation
ĠSystem Exit
Ren derer
endif changed
sh ells
Ġ'%% '
Ġ'%% ',
ĠSafeMIME Text
ith m
Ġma king
Ġcr ate
Ġcr ated
uni q
uni cate
Ġcover t
Ġcover ted
()! "
()! ".
Cre ate
bid i
Unicode DecodeError
Ġ(' %(
CM D
GT TOU
Spec ify
Stop Upload
WAI T
bra ce
bkd f
ech o
gue ss
ife qual
noo p
xFF FF
Ġfit st
Ġremin der
arno ptions
latable File
Ġelemet ns
pawn ve
Ġuniver sal
ĠFFF F
Ġupda ting
ĠSorted Dict
ĠCRE ATE
Ġalgor ithm
ĠLea f
REMO TE
defaul tencoding
filesystemen coding
])[:| ]'
CHUN K
Ġcalcula ting
ĠLocMem Cache
) .".
= ',
A ppCommand
S o
c u
c time
l lying
n verter
q ou
r index
r mtree
u ct
u ction
w ritable
} >'
Ġ quit
Ġ qou
th is
Ġa ro
re cursive
Ġf if
Ġf uction
or phans
se ction
se cu
un lock
Ġe tr
Ġ' =',
Ġdef alt
Ġp bkdf
Ġsub directory
Ġcon secu
Ġstr uct
Ġm y
Ġm anaged
it test
Ġfrom timestamp
Ġ2 6
Ġu time
Ġun ittest
Ġh e
Ġco tained
Ġap llying
tag type
ug ment
ĠS SL
en sure
Ġg e
Ġsix th
op s
Ġj oint
Ġadd ing
Ġr index
Ġr find
ĠBase CO
node Name
Ġsplit ting
pro blem
pro bably
add ing
Ġcopy mode
config ure
copy mode
rf ind
Library ValueNotFoundException
widget choices
ĠLibrary ValueNotFoundException
De serializationError
De serializedObject
Ġcomp ose
Ġgener ate
be ha
be cause
Ġpoint s
Ġfix er
Ġ"\\ ",
ĠIO Erro
Bad HeaderError
SSL Error
:// ',
Me rgeDict
CACHE S
ĠSTA TIC
hib it
Ġtz info
SI TE
Ġ"--------- ".
SMTP ServerDisconnected
ĠSMTP ServerDisconnected
ĠFileBase Cache
ĠSI TE
Ġbeha viors
Ġinter section
## #
Ġmk dir
Ġgetcw d
Ġar ugment
Ġargume ns
So me
Ġqou tes
Ġaro und
Ġetr ies
Ġconsecu tive
Ġunittest s
ĠSSL Error
ĠBaseCO nverter
beha viors
" {
" >%(
# .
' [^'
' -'
( *
( (?:
) --
. *
5 9
6 6
8 8
9 200
: "
: ,
? ".
B E
B OM
C c
C urrent
C lear
C OOKIE
C ustom
C RITICAL
D JANGO
G ATE
I W
J sonResponse
L iteral
M al
M anager
M ODIF
P o
P ointer
R a
R aw
S ILENCED
S tartDoctypeDeclHandler
T ri
T TE
W riter
W ithNode
] ",
b z
b iguous
e f
e g
e et
e il
e wer
f all
h Event
k stemp
l uhn
l completer
m kstemp
n ect
n ly
n gettext
o ke
p oint
s ted
s paceless
s quash
s Return
u gettext
v oke
w Node
x ef
| [^'
Ġ #
Ġ ^
Ġ zone
Ġ EntityDeclHandler
Ġ ENGINE
th ig
Ġa mb
Ġs si
Ġs paceless
Ġs quash
re ce
re ssion
re lation
re cognized
me d
Ġf ed
Ġf ive
Ġf av
Ġf ewer
de serializer
de tect
Ġc eil
Ġre fo
Ġre cognized
nt ype
se n
Ġt b
st all
Ġarg types
tion Parser
un resolved
un parsed
un ifunc
un timeWarning
Ġde pend
Ġde tect
Ġde stination
ument s
la tize
Ġis n
an dint
Ġif changed
ke rnel
Ġin stall
Ġb ra
Ġb lank
ss i
Ġp ull
Ġsub process
__ "
ro ot
Ġno thig
Ġcon nect
ĠT empor
Ġm n
Ġm ang
Ġex act
Ġdefine d
get size
arg types
Ġ" /
Ġ" ;
Ġ" @
Ġ" __
Ġ" ?"
Ġ" #.
Ġ" ?".
list dir
Ġname map
Ġun til
Ġun resolved
name Methods
ca tions
ra m
ag uments
Ġget size
Ġra dio
ĠF OR
ĠF ailed
ĠTr ans
Ġint ger
template tag
am biguous
ex ternal
ex istent
as cript
Ġreg roup
In teger
Ġlo cations
que stioner
ad y
ad Node
Ġnode Name
cke ts
ĠD RO
Ġth row
ĠTemplate Literal
Ex ternalEntityRefHandler
atch Manager
ĠS erver
ĠS paceless
ĠS ILENCED
ĠS tartDoctypeDeclHandler
ĠC OUNT
ĠC reating
end filter
end autoescape
end for
end with
end verbatim
end comment
end spaceless
en derer
Ġdata tuple
IN SER
pre ted
set attr
Ġout file
Ġse fl
op tional
ĠH alt
ĠM ust
ĠM IME
Ġdict repr
Re ady
Ġ{ }'
if ic
ĠU nsupported
dec r
dd l
ĠA pp
fix tures
ob sole
Ġformat date
ĠĠĠĠĠĠĠĠĠĠĠĠĠĠĠĠ ĠĠĠĠĠĠĠĠĠĠĠĠĠĠĠĠĠĠĠ
ĠĠĠĠĠĠĠĠĠĠĠĠĠĠĠĠ ĠĠĠĠĠĠĠĠĠĠĠĠ
Ġmsg id
Ġinitial ize
Ġtime val
Ġr lcompleter
Ġr andint
Ġ'_ '."
Not An
Not Ready
00 2
tern atives
CK AGE
ĠRe quest
ĠRe nameMethods
Ġiter values
Ġiter keys
ĠUn parsedEntityDeclHandler
ĠUn recognized
Ġkw ds
." '
do m
do wn
Ġpo ped
Ġk now
for med
render ing
DE X
python path
Ġid host
Ġassign ed
Ġsepar ating
url resolvers
style sh
Ġtrans form
Ġtrans lations
ĠP C
base Error
Ġhave n
FOR CE
Ġtarget s
NO TATION
Form at
cur sor
ĠW ithNode
Ġwrap per
Ġsave point
() `
]) *?
CH O
Ġtop down
ATTRI B
Un readablePostError
Un used
Un parsedEntityDeclHandler
ĠModel Base
ĠModel Signal
ĠR a
ĠR untimeWarning
ĠR enderer
UP DATE
trans lations
ĠCh ange
Ġ/ >%(
ĠO bject
ĠO ptions
Ġsup ply
PRO PA
Ġ(% %
Ġspec ific
ĠNot Found
ĠEmail Message
ĠEmail Multi
upload handler
Al ternatives
WAR NING
ĠFile UploadHandler
ĠEx pecting
ĠEx ternalEntityRefHandler
reg istry
HttpResponse Redirect
HttpResponse Forbidden
HttpResponse Gone
HttpResponse ServerError
HttpResponse PermanentRedirect
HttpResponse NotFound
Ġconcaten ated
Model Base
Model Signal
=" %(
Ġtemp latize
state ments
AN NOTATION
ĠIN TO
ĠIN DEX
ĠLo adNode
Stream ingHttpResponse
Encode r
Ġ25 9200
JSONEncode r
ĠNo wNode
Ġac cessed
Ġdatabase s
process ing
EX CEP
Ġcycle s
Ch ange
US R
Ġenviron ment
Ġfollow link
ĠMultiple Object
database s
dime nsion
ĠJSON Encoder
Name d
Ġcolor ize
]*' |[^'
Ġke rnel
otify Wrapper
Ġdigest mod
Ġcomb o
Sub ject
Ġutc date
Tag s
ĠMigration Questioner
ĠMigration Writer
Ġsy nch
Ġcould n
Archive Format
SI GTTOU
Ġsame file
}" ></
ĠSuspiciousMultipart F
Many ToMany
Ġsuffix es
Ġmodul o
Se e
Se cond
rest ype
ĠBaseMemcachedCache Methods
PA CKAGE
boolean field
LOC ATION
djangoproject s
jav ascript
Ġinit Lock
ĠBlock Context
sh ell
sy mlink
opt group
Registry NotReady
ĠManyToMany Rel
Ġreduce d
Ġprog ram
Ġrest ype
Internal High
Ġinter preted
Ġsymlink s
Cre ates
ĠPage NotAn
Ġmk stemp
xb b
xb f
ĠData baseCache
ĠData baseError
HttpResponseNot Modified
HttpResponseNot Allowed
Offset High
silence d
Ġ#-#-#-#-# \
ĠSerializer DoesNotExist
Op tional
Ġil st
'[^' ]*'|[^'
(* )
((?: '[^']*'|[^'
)-- .*
88 59
Current ly
IW USR
Mal formed
MODIF Y
Po cket
Ra ise
Tri ed
eg g
fall back
sReturn ed
voke d
Ġamb iguous
rece ive
Ġfav or
ntype s
Ġbra ckets
Ġpull dom
ĠTempor ary
Ġmang le
Ġexact ly
ĠFOR CE
ĠTrans latableFile
ĠDRO P
ĠSpaceless Node
INSER T
ĠMIME Base
Ġdictrepr s
ĠUnsupported Operation
ĠApp RegistryNotReady
obsole te
ĠRenameMethods Base
ĠUnrecognized ArchiveFormat
stylesh eet
])*? )--.*
ĠRenderer Mixin
ĠObject DoesNotExist
PROPA GATE
ĠEmailMulti Alternatives
Ġ259200 0
EXCEP TIONS
Ġfollowlink s
ĠMultipleObject sReturned
ManyToMany Rel
ĠPageNotAn Integer
((?:'[^']*'|[^' ])*?)--.*
' *
G enerator
V er
a ine
f n
f y
f etch
g lob
h it
k ill
m anaged
s ort
s ample
s pawnve
w arnoptions
x readlines
y n
Ġ qu
Ġ queries
Ġs self
Ġs pawnve
re turn
re pl
re sent
in ter
Ġw e
Ġw arnoptions
st rerror
la re
Ġo mit
Ġreturn code
Ġd ta
Ġd ump
Ġin hibit
tr uncate
Ġb widget
Ġres id
li fy
ame ters
Ġm igr
get fqdn
get defaultencoding
get filesystemencoding
Ġ" ("
Ġ" ###
Ġ% =
Ġget fqdn
Ġget defaultencoding
Ġget filesystemencoding
Ġh eight
Ġdefault dict
Ġdec lare
Ġreg ard
pla in
Ġ* =
Ġnode Type
ĠD id
error handle
Ġhas Attribute
ĠDe serializedObject
TA CH
ma ss
ac cess
LE TTE
AT TACH
ĠA D
ĠA re
ĠA rchive
Ġmsg uniq
Ġinitial ized
rea dinto
node Type
Ġal so
ĠL ANGUAGE
Ġexp andNode
Ġk ill
Key Warning
match case
close variable
close comment
close brace
Ġcomm unicate
TER NAL
has Attribute
ĠW hit
min imal
open variable
open comment
open brace
Ġview s
ĠModel File
Ġslice d
exp andNode
write lines
msg uniq
ĠIN TERNAL
manager s
comple x
Ġ| =
Ġ'( ',
Ġcount aine
Ġ'* %
Ġ'* ',
ĠOr der
ĠCACHE S
Archive Exception
norm al
comm unicate
Many ToOneRel
ĠCache KeyWarning
soft space
Ġdon t
PA LETTE
ĠMany ToOneRel
Ġcomple x
ĠZ ip
ĠPro cess
admin s
Ġfnmatch case
Ġgetcw du
',)? "
',)? ",
Ġfif th
'* ',
Ver bosity
fn matchcase
fetch one
return code
Ġomit table
Ġresid ue
Ġregard less
ATTACH MENT
ĠArchive Exception
ĠLANGUAGE S
ĠModelFile d
" \
' >
) .__
- ',
/ .
2 2
8 22
: ",
= ''
= -'
= -',
@ %
A t
A v
A TA
A ME
A uto
A NOW
A rgs
B IN
B ytes
C S
C annot
D RE
D ATA
E E
E CHO
F ix
G R
I CON
I GN
I SO
I GR
M ore
M CACHE
O nly
P ython
P aginator
R ON
R andom
S tring
W ill
W atchManager
W RON
Y es
\ ',
a ce
a ssign
a tures
a utodetector
b or
c md
d in
d ated
d klen
f lat
f ace
g al
g en
g gin
i te
i de
l t
l se
l one
l bp
m ine
m op
m ber
m dir
m ask
n Type
n ud
p tionParser
r on
s cal
s kip
s upported
t b
t ree
t gz
u tu
u do
w t
w ister
w ard
w alk
y N
y am
y load
z ip
} >\
~ /.
Ġ li
Ġ vi
Ġ AT
Ġ Query
Ġ Encode
Ġ lit
Ġ unction
Ġ ###
Ġ questioner
Ġa bo
Ġs top
Ġi python
Ġi mop
te qual
re la
me mcache
or g
or age
ti tion
Ġc lone
Ġre que
Ġre cord
Ġre serve
nt ries
in line
in clude
in stead
in ner
in hibit
in voked
rg ument
tu e
se e
se ed
se ded
se udo
Ġt c
st ra
st op
st orage
le gal
ar range
Ġwi sh
Ġwi ntypes
tion Error
un gettext
Ġde ter
Ġde serialize
Ġde pendencies
Ġe t
ce ed
Ġfor th
Ġfor bid
Ġn odel
Ġ' >
Ġ' ~/.
an ry
Ġif no
Ġif equal
Ġo utu
ing ly
er sen
Ġin set
Ġin stalling
Ġin voked
Ġb ig
Ġp seudo
Ġsub tra
Ġsub commands
Ġme mber
li en
Ġcon sole
ĠN AME
ĠT wister
ta b
Ġdefine s
lo wer
Ġ" $
Ġ" ',
Ġ" ]"
Ġ" ``
Ġel ntries
con sole
ort Error
Ġu mask
pa ck
pa yload
Ġun ap
Ġun su
name list
fe w
fe rent
fe atures
Ġpar ameters
Ġget state
ĠF ix
ĠF alling
Ġh alt
Ġh ide
Ġle gacy
ĠV AL
ata dd
Ġor d
di oField
and range
Ġform atadd
Ġappend ing
init Lock
pla n
Ġlo cated
Ġ* '
Ġ* ,
Ġby es
ir m
ĠTemplate Response
Ex ec
ource s
Ġup dated
ĠS yntaxError
ĠS EE
Ġconver ting
Ġpro ceed
res ses
res ources
IN otifyWrapper
ST ORAGE
Ġfirst of
par tition
Ġparse add
Ġout side
Ġse ed
Ġse em
ĠB M
Ġen ded
Node s
Ġmatch ing
Field Renderer
ĠIn dent
ĠM ark
ĠM ersen
Ġj ust
AT TER
ĠA mb
ĠA sser
ĠA bor
ĠA rgument
ĠĠĠĠĠĠĠĠĠĠĠĠĠĠĠĠ ĠĠĠĠĠĠĠĠĠĠĠĠĠĠĠĠĠĠĠĠĠĠĠĠĠ
Ġr ise
Ġr mdir
Ġsuper seded
Ġcontain ig
AL L
Ġsta tue
app ly
Ġfla g
10 0
10 24
00 0
Ġv a
ĠI SO
Ġbe ggin
su me
load data
Ġindex ing
Ġindex es
cl one
START UP
Ġiter ated
mple ter
do pen
Ġat ttribute
Ġx gettext
clo b
ĠE CHO
model formset
OU TP
python rc
wi ntypes
Ġ"% %
Ġlabel ed
sub command
del attr
cache ent
rf c
ĠP aginator
ĠP ickle
ĠP ATTER
close block
Th ere
first of
comp ression
ĠW atchManager
Ġmake s
Base Model
Base InlineFormSet
Base ModelForm
200 2
XT URE
Ġcomp onent
Ġcomp ression
AU TO
open block
ĠME MCACHE
Lo ading
Lo ckFileEx
Un lockFileEx
Ġconf lict
Ġconf irm
Set Paginator
Ġauto complete
Ġ'__ ',
ĠO nly
ĠO ptionParser
ity Error
ĠWSGI Request
wrap ped
igu ityError
Ġ` `
Text Field
Ġhandle s
Cache Entry
URL Validator
Ġdis connect
=' __
Ġsen se
Ġsql migrate
Ġsql flush
origin al
Select Multiple
Model ChoiceField
Model MultipleChoiceField
Ġfail s
AN SI
AN ICON
ĠIN otifyWrapper
ĠLo ck
Ġ25 0
PY THON
Ġrepre sen
star tup
ĠNo tifier
ĠNo Args
Ġ100 000
Ġac cept
ĠChoiceField Renderer
ĠMe ssage
.. .",
Ġsend mail
iste lse
Ġwas n
Ġoper ation
utc fromtimestamp
EX CL
No te
No tifier
Ġdif ferent
Ġ'( '
Ġiden tifier
Ġover ride
dis play
dis connect
depre cated
Ġ'| ',
HEAD ING
migr ated
COL OR
Trans latableFile
Pro blem
Ġ'* '.
send mail
HEADER S
CRE AT
ĠCon sume
ĠCheckbox FieldRenderer
ĠCheckbox SelectMultiple
Ġutc fromtimestamp
ĠMigration Exec
PATH S
Ġsy nc
Ġsy ncdb
Ġmodify ing
Ġzip file
tio anry
ĠContent File
Ġ"^ ((?:'[^']*'|[^'])*?)--.*
MPLE TE
Ġaccess ible
By te
Ele ment
}" {
}" >'
temp ted
hex lify
Ġdic tioanry
Ġstar ted
"^ ((?:'[^']*'|[^'])*?)--.*
SEC TION
Ġ& =
sy nch
Ġappear s
ĠSafeMIME Message
ĠSI GTTOU
Pickle Error
Ġlogi c
Dis position
Ġserializ ation
Check ing
Ġdiction ay
CO MPLETE
Ġar range
Op tionParser
Ġil legal
dio Select
Return s
Ġfif t
66 6
Ġ^ =
Ġsquash migrations
Ġceil ing
Ġ"@ "
Ġ"@ ',
ĠRa dioField
ĠRa dioSelect
Ġsynch ron
symlink s
ĠTemporary FileUploadHandler
ĠTemporary UploadedFile
inter face
Ġmigr ated
ĠAD DRE
ĠZip Archive
ĠProcess ing
='' )
At tempted
Av ailable
Auto Field
BIN ARY
CS ANOW
IGR ATE
WRON LY
assign ment
flat ten
scal ar
ward s
yam l
Ġli sted
Ġvi a
ĠQuery SetPaginator
ĠEncode rs
Ġ### "
Ġabo ve
Ġimop ortError
rela tional
Ġreque sted
Ġreserve d
inline formset
stra ct
Ġdeter mine
Ġnodel istelse
Ġifno tequal
Ġoutu t
Ġsubtra ction
Ġunap cked
Ġunsu itable
ĠFix Unicode
ĠVAL UES
Ġformatadd r
ĠSEE K
Ġparseadd r
Ġseem ingly
ĠIndent ationError
ĠMersen ne
ĠAmb iguityError
ĠAsser tionError
ĠAbor ting
ĠArgument Parser
Ġbeggin ing
OUTP UT
cacheent ry
ĠPickle Error
ĠPATTER N
BaseModel FormSet
ANSI CON
PYTHON STARTUP
Ġrepresen ted
ĠNoArgs Command
ĠMigrationExec utor
Ġ"^((?:'[^']*'|[^'])*?)--.* $",
"^((?:'[^']*'|[^'])*?)--.* $"
ĠRadioField Renderer
ĠADDRE SS
