{"<annotation_start>":0,"<annotation_end>":1,"<code_start>":2,"<code_end>":3,"</s>":4,"!":5,"\"":6,"#":7,"$":8,"%":9,"&":10,"'":11,"(":12,")":13,"*":14,"+":15,",":16,"-":17,".":18,"/":19,"0":20,"1":21,"2":22,"3":23,"4":24,"5":25,"6":26,"7":27,"8":28,"9":29,":":30,";":31,"<":32,"=":33,">":34,"?":35,"@":36,"A":37,"B":38,"C":39,"D":40,"E":41,"F":42,"G":43,"H":44,"I":45,"J":46,"K":47,"L":48,"M":49,"N":50,"O":51,"P":52,"Q":53,"R":54,"S":55,"T":56,"U":57,"V":58,"W":59,"X":60,"Y":61,"Z":62,"[":63,"\\":64,"]":65,"^":66,"_":67,"`":68,"a":69,"b":70,"c":71,"d":72,"e":73,"f":74,"g":75,"h":76,"i":77,"j":78,"k":79,"l":80,"m":81,"n":82,"o":83,"p":84,"q":85,"r":86,"s":87,"t":88,"u":89,"v":90,"w":91,"x":92,"y":93,"z":94,"{":95,"|":96,"}":97,"~":98,"¡":99,"¢":100,"£":101,"¤":102,"¥":103,"¦":104,"§":105,"¨":106,"©":107,"ª":108,"«":109,"¬":110,"®":111,"¯":112,"°":113,"±":114,"²":115,"³":116,"´":117,"µ":118,"¶":119,"·":120,"¸":121,"¹":122,"º":123,"»":124,"¼":125,"½":126,"¾":127,"¿":128,"À":129,"Á":130,"Â":131,"Ã":132,"Ä":133,"Å":134,"Æ":135,"Ç":136,"È":137,"É":138,"Ê":139,"Ë":140,"Ì":141,"Í":142,"Î":143,"Ï":144,"Ð":145,"Ñ":146,"Ò":147,"Ó":148,"Ô":149,"Õ":150,"Ö":151,"×":152,"Ø":153,"Ù":154,"Ú":155,"Û":156,"Ü":157,"Ý":158,"Þ":159,"ß":160,"à":161,"á":162,"â":163,"ã":164,"ä":165,"å":166,"æ":167,"ç":168,"è":169,"é":170,"ê":171,"ë":172,"ì":173,"í":174,"î":175,"ï":176,"ð":177,"ñ":178,"ò":179,"ó":180,"ô":181,"õ":182,"ö":183,"÷":184,"ø":185,"ù":186,"ú":187,"û":188,"ü":189,"ý":190,"þ":191,"ÿ":192,"Ā":193,"ā":194,"Ă":195,"ă":196,"Ą":197,"ą":198,"Ć":199,"ć":200,"Ĉ":201,"ĉ":202,"Ċ":203,"ċ":204,"Č":205,"č":206,"Ď":207,"ď":208,"Đ":209,"đ":210,"Ē":211,"ē":212,"Ĕ":213,"ĕ":214,"Ė":215,"ė":216,"Ę":217,"ę":218,"Ě":219,"ě":220,"Ĝ":221,"ĝ":222,"Ğ":223,"ğ":224,"Ġ":225,"ġ":226,"Ģ":227,"ģ":228,"Ĥ":229,"ĥ":230,"Ħ":231,"ħ":232,"Ĩ":233,"ĩ":234,"Ī":235,"ī":236,"Ĭ":237,"ĭ":238,"Į":239,"į":240,"İ":241,"ı":242,"Ĳ":243,"ĳ":244,"Ĵ":245,"ĵ":246,"Ķ":247,"ķ":248,"ĸ":249,"Ĺ":250,"ĺ":251,"Ļ":252,"ļ":253,"Ľ":254,"ľ":255,"Ŀ":256,"ŀ":257,"Ł":258,"ł":259,"Ń":260,"ĠĠ":261,"ĠĠĠĠ":262,"th":263,"Ġa":264,"Ġs":265,"Ġi":266,"te":267,"re":268,"on":269,"me":270,"el":271,"Ġf":272,"or":273,"al":274,"ti":275,"de":276,"Ġc":277,"the":278,"Ġre":279,"Ġthe":280,"ĠĠĠĠĠĠĠĠ":281,"nt":282,"Ġ(":283,"Ġ)":284,"in":285,"Ġsel":286,"Ġself":287,"Ġan":288,"rg":289,"Ġ.":290,"Ġw":291,"tu":292,"Ġ,":293,"ue":294,"se":295,"Ġt":296,"st":297,"le":298,"Ġarg":299,"ment":300,"ar":301,"Ġwi":302,"Ġ:":303,"Ġwith":304,"tion":305,"un":306,"Ġde":307,"val":308,"Ġ=":309,"ument":310,"la":311,"Ġe":312,"Ġis":313,"Ġargument":314,"ce":315,"Ġfor":316,"Ġn":317,"Ġ'":318,"an":319,"od":320,"Ġif":321,"Ġo":322,"mp":323,"Ġdef":324,"value":325,"rn":326,"Ġand":327,"Ġto":328,"turn":329,"Ġreturn":330,"Ġd":331,"ing":332,"er":333,"unc":334,"ke":335,"Ġvalue":336,"ul":337,"Ġin":338,"tr":339,"Ġsu":340,"ter":341,"et":342,"Ġb":343,"ss":344,"ult":345,"Ġres":346,"Ġp":347,"at":348,"Ġsub":349,"Ġme":350,"__":351,"Ġfunc":352,"Ġcal":353,"thod":354,"li":355,"Ġmethod":356,"Ġof":357,"xt":358,"pe":359,"ame":360,"sti":361,"ro":362,"Ġsubsti":363,"Ġsubstitu":364,"text":365,"Ġsubstitute":366,"Ġcall":367,"Ġresult":368,"Ġno":369,"ine":370,"ĠĠĠĠĠĠĠĠĠ":371,"ror":372,"Ġarguments":373,"Ġcon":374,"one":375,"Ġfunction":376,"ĠN":377,"Ġstr":378,"ct":379,"ĠT":380,"il":381,"Ġm":382,"it":383,"ĠĠĠĠĠ":384,"lass":385,"Ġstring":386,"ĠNone":387,"rror":388,"ta":389,"Ġex":390,"ate":391,"Ġdefine":392,"ode":393,"ilter":394,"Ġnot":395,"Ġclass":396,"rom":397,"ĠĠĠĠĠĠĠĠĠĠĠĠĠ":398,"get":399,"lo":400,"Ġset":401,"es":402,"Ġfrom":403,"Ġtr":404,"ut":405,"arg":406,"Error":407,"id":408,"ken":409,"Ġ\"":410,"Ġel":411,"Ġdi":412,"con":413,"Ġ2":414,"late":415,"nd":416,"ort":417,"list":418,"Ġu":419,"ver":420,"mplate":421,"ary":422,"cep":423,"ty":424,"Ġ[":425,"Ġ]":426,"pa":427,"key":428,"Ġ__":429,"der":430,"mport":431,"Ġname":432,"ve":433,"ile":434,"Ġimport":435,"var":436,"Ġun":437,"Ġkey":438,"args":439,"ise":440,"ch":441,"iel":442,"ield":443,"name":444,"ca":445,"Ġexcep":446,"ra":447,"ang":448,"Ġtoken":449,"Ġ_":450,"kw":451,"ag":452,"ect":453,"oo":454,"ction":455,"jang":456,"jango":457,"ur":458,"fe":459,"afe":460,"Ġlist":461,"ject":462,"ng":463,"stan":464,"lean":465,"Ġpar":466,"Ġ%":467,"ctionary":468,"Ġdictionary":469,"ist":470,"Ġget":471,"ase":472,"Ġra":473,"str":474,"ble":475,"ĠF":476,"ĠTr":477,"alse":478,"ement":479,"code":480,"Ġh":481,"filter":482,"Ġit":483,"Ġelement":484,"Ġco":485,"Ġint":486,"template":487,"Ġraise":488,"to":489,"ĠTrue":490,"Ġap":491,"stance":492,"kwargs":493,"Ġdjango":494,"ault":495,"oolean":496,"Ġle":497,"ĠV":498,"Ġcontext":499,"Ġboolean":500,"mpty":501,"cape":502,"ig":503,"ator":504,"Ġvar":505,"ck":506,"Ġtry":507,"ĠĠĠĠĠĠĠĠĠĠĠĠĠĠĠĠĠ":508,"is":509,"ĠĠĠ":510,"Ġfilter":511,"odel":512,"valid":513,"safe":514,"ol":515,"ata":516,"Ġbit":517,"Ġinto":518,"Ġdefault":519,"Ġexception":520,"Ġas":521,"Ġ1":522,"orm":523,"Ġdec":524,"Ġor":525,"di":526,"Ġargs":527,"art":528,"Ġempty":529,"am":530,"Ġkwargs":531,"ax":532,"ttr":533,"ĠFalse":534,"Ġob":535,"ex":536,"bu":537,"ri":538,"and":539,"tag":540,"able":541,"Ġ'%":542,"Ġform":543,"til":544,"pend":545,"oes":546,"odu":547,"Ġbase":548,"Ġtrue":549,"string":550,"odule":551,"Ġappend":552,"Ġ3":553,"ser":554,"func":555,"form":556,"ger":557,"pace":558,"',":559,"as":560,"teger":561,"Ġreg":562,"context":563,"init":564,"ht":565,"put":566,"co":567,"tent":568,"Ġattr":569,"Ġinstance":570,"Ġinteger":571,"time":572,"ix":573,"Ġne":574,"pla":575,"In":576,"ister":577,"per":578,"olve":579,"emplate":580,"Ġpa":581,"Ġlo":582,"place":583,"Ġch":584,"qu":585,"Ġregister":586,"iable":587,"ated":588,"odelist":589,"no":590,"que":591,"pon":592,"ngth":593,"Ġ*":594,"Ġca":595,"ad":596,"rent":597,"AR":598,"Ġsubject":599,"Ġbits":600,"lib":601,"ponse":602,"ther":603,"ed":604,"mpile":605,"tils":606,"Ġdecor":607,"ug":608,"TE":609,"Ġwh":610,"Ġtemplate":611,"Ġnode":612,"._":613,"Ġ@":614,"up":615,"Ġby":616,"Ġdecorator":617,"Ġelse":618,"ted":619,"Ġspace":620,"ir":621,"EN":622,"ssag":623,"ĠVal":624,"Ġother":625,"nder":626,"cke":627,"ting":628,"Ġ0":629,"Ġunpa":630,"Ġunder":631,"Ġreplace":632,"module":633,"Ġuse":634,"Ġst":635,"ibu":636,"ibute":637,"type":638,"cked":639,"our":640,"ĠD":641,"Ġunpacked":642,"Ġth":643,"very":644,"ĠTemplate":645,"Ġevery":646,"Ex":647,"Ġla":648,"Ġfield":649,"ource":650,"Ġexcept":651,"Ġup":652,"atch":653,"utoes":654,"utoescape":655,"che":656,"ught":657,"Ġtag":658,"ze":659,"Ġcaught":660,"Ġobject":661,"tem":662,"ĠS":663,"Ġconver":664,"urrent":665,"Ġpro":666,"mm":667,"irst":668,"Ġforce":669,"ader":670,"ĠC":671,"Ġconta":672,"tp":673,"end":674,"Ġresolve":675,"format":676,"en":677,"line":678,"ĠĠĠĠĠĠĠĠĠĠĠĠĠĠĠĠĠĠĠĠĠ":679,"error":680,"Ġcompile":681,"attr":682,"dict":683,"res":684,"cal":685,"\",":686,"led":687,"ams":688,"Ġelements":689,"ple":690,"Ġlength":691,"field":692,"Ġfile":693,"ake":694,"oin":695,"ariable":696,"Ġdata":697,"IN":698,"ontext":699,"tes":700,"ST":701,"Ġcurrent":702,"'.":703,"anno":704,"Ġcre":705,"ynt":706,"yntax":707,"start":708,"yntaxError":709,"SyntaxError":710,"ĠTemplateSyntaxError":711,"qual":712,"ign":713,"Ġerror":714,"Ġsetting":715,"ype":716,"Ġg":717,"ation":718,"><":719,"Ġfirst":720,"rive":721,"par":722,"Ġstringfilter":723,"tation":724,"ion":725,"Ġderive":726,"Ġequal":727,"pre":728,"rary":729,"um":730,"sta":731,"pec":732,"Ġsettings":733,"annotation":734,"function":735,"Ġparse":736,"tial":737,"tuple":738,"set":739,"Ġout":740,"Ġpath":741,"Ġse":742,"mmand":743,"OR":744,"Ġhas":745,"instance":746,"Ġ4":747,"ize":748,"ttp":749,"token":750,"pli":751,"class":752,"cod":753,"coding":754,"ĠB":755,"Ġ+":756,"wise":757,"Ġen":758,"Ġreplaced":759,"Node":760,"Ġnodelist":761,"Ġsix":762,"Ġcontent":763,"Ġobj":764,"tags":765,"Ġmatch":766,"py":767,"Ġotherwise":768,"eader":769,"Ġrender":770,"Field":771,"op":772,"ĠDe":773,"Ġattribute":774,"Ġoutput":775,"oi":776,"ueError":777,"ĠValueError":778,"quest":779,"Ġwid":780,"itial":781,"vi":782,"Ġnew":783,"ĠVariable":784,"ĠIn":785,"TA":786,"ark":787,"Ġlen":788,"Ġtake":789,"Res":790,"Ġtuple":791,"ĠH":792,"sg":793,"Ġcalled":794,"Ġmark":795,"scape":796,"ba":797,"dex":798,"plit":799,"Ġ**":800,"Ġend":801,"Ġautoescape":802,"Ġparams":803,"messag":804,"cess":805,"oice":806,"Ġur":807,"ost":808,"ĠM":809,"ma":810,"ot":811,"Ġj":812,"ream":813,"mal":814,"content":815,"ception":816,"Ġdict":817,"ry":818,"mo":819,"Ġstart":820,"Ġwidget":821,"Re":822,"its":823,"Response":824,"SE":825,"Ġthan":826,"date":827,"Ġparser":828,"bel":829,"Ġchar":830,"utils":831,"Ġvalid":832,"Ġlib":833,"ac":834,"Ġutils":835,"ap":836,"ined":837,"ere":838,"item":839,"cessor":840,"Ġ{":841,"Ġtakes":842,"Ġwhere":843,"ki":844,"LE":845,"if":846,"Ġisinstance":847,"Ġconvert":848,"Ġ}":849,"ttpResponse":850,"ĠU":851,"Ġline":852,"stant":853,"AT":854,"dec":855,"conf":856,"ĠType":857,"dd":858,"Ġapp":859,"ĠA":860,"data":861,"ĠTypeError":862,"Exception":863,"lock":864,"fix":865,"igin":866,"Ġresponse":867,"%(":868,"nodelist":869,"out":870,"imal":871,"ob":872,"cessors":873,"Ġformat":874,"ĠĠĠĠĠĠĠĠĠĠĠĠĠĠĠĠ":875,"Ġmsg":876,"ĠHttpResponse":877,"Ġinitial":878,"Ġescape":879,"source":880,"Ġ''":881,"Ġpre":882,"Ġ-":883,"Ġdo":884,"Ġresolved":885,"ns":886,"Ġy":887,"ne":888,"Ġurl":889,"Ġfalse":890,"Ġexist":891,"sed":892,"Ġadd":893,"Ġtime":894,"red":895,"Ġcontained":896,"Ġmodule":897,"Ġjoin":898,"Ġr":899,".'":900,"Ġsource":901,"Ġupto":902,"ooki":903,"path":904,"Ġdefaults":905,"cre":906,"ATE":907,"Data":908,"vel":909,"Ġcreated":910,"OK":911,"ust":912,"ĠĠĠĠĠĠ":913,"file":914,"modules":915,"Ġ==":916,"rea":917,"cond":918,"Ġlast":919,"ĠNode":920,"ml":921,"TAG":922,"Ġexists":923,"Ġbytes":924,"Ġrequest":925,"\\\\":926,"Ġdate":927,"max":928,"Ġcode":929,"bug":930,"und":931,"back":932,"Ġsuper":933,"Ġcontain":934,"AL":935,"teral":936,"Ġ'_":937,"Ġattrs":938,"ssion":939,"Ġsta":940,"app":941,"Ġop":942,"literal":943,"icode":944,"ber":945,"ĠContext":946,"umber":947,"messages":948,"len":949,"ON":950,"move":951,"Ġmessag":952,"ler":953,"ING":954,"Ġfla":955,"kup":956,"ENT":957,"Not":958,"okup":959,"Ġcommand":960,"10":961,"until":962,"00":963,"tern":964,"us":965,"ip":966,"Ġwhile":967,"pression":968,"ĠBase":969,"node":970,"by":971,"Ġdig":972,"Ġcharac":973,"Ġcharacter":974,"hand":975,"Ġmax":976,"age":977,"main":978,"ound":979,"iter":980,"Ġv":981,"LO":982,"ĠDebug":983,"mit":984,"Ġsplit":985,"Ġencoding":986,"ĠI":987,"ationError":988,"Ġal":989,"tivel":990,"tively":991,"Ġrespec":992,"tend":993,"Ġrespectively":994,"tions":995,"ĠException":996,"django":997,"wer":998,"idationError":999,"Ġbe":1000,"Ġconverted":1001,"ear":1002,"MP":1003,"ĠValidationError":1004,"pro":1005,"Ġdel":1006,"ĠL":1007,"ib":1008,"Ġexp":1009,"ĠTOK":1010,"ĠTOKEN":1011,"escape":1012,"label":1013,"tz":1014,"Par":1015,"Parser":1016,"Ġare":1017,"AB":1018,"ave":1019,"fields":1020,"ly":1021,"Ġmessage":1022,"Ġ\"'":1023,"MENT":1024,"invalid":1025,"Ġequals":1026,"RE":1027,"oices":1028,"resolve":1029,"header":1030,"ulti":1031,".__":1032,"su":1033,"Ġsecond":1034,"load":1035,"Ġinput":1036,"dicts":1037,"obj":1038,"Ġindex":1039,"Ġgetattr":1040,"ointer":1041,"Ġcontaining":1042,"Ġvarargs":1043,"Ġvarkw":1044,"Ġstream":1045,"LATE":1046,"MPLATE":1047,"check":1048,"ress":1049,"Ġ<":1050,"Ġsafe":1051,"low":1052,"ĠĠĠĠĠĠĠĠĠĠĠĠĠĠĠĠĠĠĠĠĠĠĠĠĠ":1053,"autoescape":1054,"attern":1055,"En":1056,"Context":1057,"ttribute":1058,"da":1059,"Ġelif":1060,"Ġdicts":1061,"Ġconstant":1062,"ibrary":1063,"cl":1064,"Di":1065,"thing":1066,"Ġextend":1067,"Ġdoes":1068,"Dict":1069,"ĠAttribute":1070,"ĠAttributeError":1071,"gettext":1072,"Val":1073,"Ġupdate":1074,"decor":1075,"Ġon":1076,"Ġcreate":1077,"decorated":1078,"ART":1079,"local":1080,"ĠInvalid":1081,"arn":1082,"Ġmust":1083,"ord":1084,"START":1085,"(?":1086,"Ġmodel":1087,"Ġorigin":1088,"CK":1089,"Ġnothing":1090,"ĠSafe":1091,"thon":1092,"limit":1093,"ABLE":1094,"Ġnext":1095,"space":1096,"den":1097,"ded":1098,"ates":1099,"query":1100,"ĠSafeData":1101,"ans":1102,"ilti":1103,"Ġheader":1104,"LOCK":1105,"ĠĠĠĠĠĠĠĠĠĠĠĠĠĠ":1106,"ĠRe":1107,"ATOR":1108,"ID":1109,"qui":1110,"expression":1111,"Ġlower":1112,"OM":1113,"Ġerrors":1114,"Ġiter":1115,"length":1116,"oesNot":1117,"Exist":1118,"oesNotExist":1119,"ĠUn":1120,"Ġoptions":1121,"mple":1122,"DoesNotExist":1123,"Ġkw":1124,"ssign":1125,"Ġkwarg":1126,".\"":1127,"IABLE":1128,"ER":1129,"Ġdigits":1130,"do":1131,"roup":1132,"Ġincre":1133,"Ġat":1134,"idget":1135,"Ġlookup":1136,"gs":1137,"ARIABLE":1138,"Ġvalidate":1139,"bs":1140,"OMMENT":1141,"cimal":1142,"gex":1143,"Ġremove":1144,"Ġeval":1145,"rect":1146,"pr":1147,"Ġtext":1148,"idden":1149,"Ġpo":1150,"IF":1151,"tus":1152,"compile":1153,"mb":1154,"ators":1155,"Ġx":1156,"encoding":1157,"ĠDecimal":1158,"Ġevalu":1159,"Ġ%(":1160,"Ġpass":1161,"VAL":1162,"Ġ5":1163,"'\"":1164,"library":1165,"Ġprovi":1166,"ys":1167,"clo":1168,"processors":1169,"List":1170,"unk":1171,"ete":1172,"STR":1173,"STRING":1174,"Ġk":1175,"Ġflags":1176,"Ġdoesnt":1177,"Ġnumber":1178,"elp":1179,"Ġ'\\":1180,"add":1181,"for":1182,"Template":1183,"ind":1184,"Ġlocal":1185,"onth":1186,"are":1187,"ĠE":1188,"def":1189,"cation":1190,"ookie":1191,"render":1192,"tra":1193,"bytes":1194,"Ġ+=":1195,"Ġcontents":1196,"command":1197,"html":1198,"Ġprocessors":1199,"iltins":1200,"eri":1201,"ew":1202,"dir":1203,"Ġhasattr":1204,"exer":1205,"Ġpop":1206,"Ġver":1207,"params":1208,"quired":1209,"INVAL":1210,"INVALID":1211,"arning":1212,"meta":1213,"ĠVARIABLE":1214,"variable":1215,"char":1216,"Ġsign":1217,"Ġcopy":1218,"RA":1219,"Input":1220,"Ġ\"'%":1221,"perty":1222,"Ġclean":1223,"Ġtemplatetags":1224,"queryset":1225,"Ġlamb":1226,"Ġlambda":1227,"Ġblock":1228,"table":1229,"attrs":1230,"PAR":1231,"SEPAR":1232,"SEPARATOR":1233,"Ġpattern":1234,"Ġstatus":1235,"ture":1236,"config":1237,"Ġhost":1238,"CE":1239,"Ke":1240,"Key":1241,"Ġrever":1242,"eds":1243,"read":1244,"Ġincrement":1245,"END":1246,"Ġdatetime":1247,"DE":1248,"Ġall":1249,"Ġparam":1250,"lable":1251,"Ġdomain":1252,"Ġproperty":1253,"view":1254,"!=":1255,"Ġ!=":1256,"zy":1257,"model":1258,"nce":1259,"Ġfilters":1260,"block":1261,"OU":1262,"cate":1263,"ĠVariableDoesNotExist":1264,"oken":1265,"localtime":1266,"python":1267,"use":1268,"uld":1269,"Ġpk":1270,"Ġsublist":1271,"Ġgrea":1272,"Ġgreater":1273,"Ġstarts":1274,"default":1275,"Ġevaluates":1276,"ied":1277,"ard":1278,"Ġsys":1279,"Ġos":1280,"ookies":1281,"ts":1282,"Ġstrip":1283,"call":1284,"sser":1285,"wi":1286,"Ġlesser":1287,"Ġ\"%":1288,"Ġlabel":1289,"ĠToken":1290,"constant":1291,"Ġid":1292,"18":1293,"rap":1294,"Ġexceptions":1295,"Ġ>":1296,"copy":1297,"idator":1298,"Validator":1299,"Ġbu":1300,"Ġassign":1301,"stream":1302,"Ġvalues":1303,"Ġsepar":1304,"with":1305,"match":1306,"Ġchunk":1307,"prefix":1308,"dig":1309,"reak":1310,"sub":1311,"Ġprovided":1312,"Ġtype":1313,"Ġ'<":1314,"empty":1315,"Ġcol":1316,"repr":1317,"Ġgen":1318,"(?:":1319,"Ġthis":1320,"direct":1321,"Ġ',":1322,"values":1323,"pen":1324,"lazy":1325,"ive":1326,"Ġent":1327,"message":1328,"del":1329,"Ġnodes":1330,"Ġfields":1331,"Ġht":1332,"split":1333,"Ġformats":1334,"clu":1335,"\"'":1336,"forms":1337,"tional":1338,"Ġtaglib":1339,"ore":1340,"inf":1341,"cache":1342,"url":1343,"Ġval":1344,"headers":1345,"num":1346,"utable":1347,"ure":1348,"Ġyield":1349,"Ġlines":1350,"olver":1351,"cheme":1352,"ext":1353,"yle":1354,"style":1355,"nection":1356,"Ġunhand":1357,"ĠFI":1358,"Ġunhandled":1359,"clude":1360,"rf":1361,"Library":1362,"ail":1363,"04":1364,"srf":1365,"rence":1366,"size":1367,"dard":1368,"standard":1369,"contents":1370,"tim":1371,"batim":1372,"sert":1373,"ĠĠĠĠĠĠĠĠĠĠĠĠĠĠĠĠĠĠ":1374,"ME":1375,"Or":1376,"ime":1377,"choices":1378,"Ġinvalid":1379,"Ġunicode":1380,"pected":1381,"Ġcallable":1382,"Ġ10":1383,"oundary":1384,"templatetags":1385,"Ġtrans":1386,"Ġtags":1387,"ĠĠĠĠĠĠĠ":1388,"titem":1389,"Ġhtml":1390,"handler":1391,"iz":1392,"ique":1393,"ĠUnicode":1394,"ires":1395,"om":1396,"ĠP":1397,"ĠTE":1398,"widget":1399,"word":1400,"BU":1401,"Ġdup":1402,"licate":1403,"Ġduplicate":1404,"base":1405,"part":1406,"initial":1407,"ay":1408,"address":1409,"ĠBaseContext":1410,"Ġpointer":1411,"Ġprefix":1412,"zone":1413,"alize":1414,"Ġso":1415,"regex":1416,"Ġlibrary":1417,"rite":1418,"over":1419,"from":1420,"imple":1421,"ĠTEMPLATE":1422,"Ġhave":1423,"Ġcache":1424,"Ġfk":1425,"ĠĠĠĠĠĠĠĠĠĠĠĠĠĠĠĠĠĠĠĠĠĠĠĠĠĠĠĠĠ":1426,"ĠBLOCK":1427,"Ġneeds":1428,"pointer":1429,"files":1430,"]*":1431,"TEMPLATE":1432,"las":1433,"Ġchoices":1434,"ipv":1435,"digits":1436,"ous":1437,"Variable":1438,"js":1439,"Que":1440,"'\",":1441,"Ġhelp":1442,"bit":1443,"elect":1444,"TI":1445,"xer":1446,"Ġlexer":1447,"Ġlocalize":1448,"Ġugettext":1449,"ĠNodeList":1450,"ild":1451,"FOR":1452,"ĠKey":1453,"parse":1454,"Ġflat":1455,"Query":1456,"loat":1457,"Ġone":1458,"Ġyear":1459,"QueryDict":1460,"ge":1461,"Ġitem":1462,"Ġcondi":1463,"Origin":1464,"unt":1465,"Ġloop":1466,"TemplateLibrary":1467,"Ġabs":1468,"Ġdecimal":1469,"Ġregex":1470,"Oper":1471,"ĠQueryDict":1472,"ĠInvalidTemplateLibrary":1473,"ĠKeyError":1474,"Ġconnection":1475,"Ġseparated":1476,"doc":1477,"bo":1478,"elper":1479,"case":1480,"Ġparent":1481,"object":1482,"Ġro":1483,"Ġtarg":1484,"ĠIndex":1485,"Ġtarget":1486,"ĠIndexError":1487,"ware":1488,"Ġdelete":1489,"NO":1490,"argument":1491,"mail":1492,"ls":1493,"lug":1494,"filters":1495,"sion":1496,"lize":1497,"codeError":1498,"Operation":1499,"Ġreversed":1500,"Invalid":1501,"uncate":1502,"ride":1503,"ati":1504,"uri":1505,"override":1506,"Ġtruncate":1507,"Ġmonth":1508,"Ġnodetype":1509,"ĠĠĠĠĠĠĠĠĠĠ":1510,"fu":1511,"vals":1512,"named":1513,"Ġencode":1514,"Ġpos":1515,"errors":1516,"tain":1517,"Ġexpires":1518,"stru":1519,"Enter":1520,"Form":1521,"\\.":1522,"cur":1523,"ping":1524,"Ġnamespace":1525,"andler":1526,"ho":1527,">'":1528,"close":1529,"Ġcomm":1530,"pk":1531,"eck":1532,"ĠInvalidOperation":1533,"Ġstreaming":1534,"ED":1535,"Ġfind":1536,"Ġrece":1537,"Ġrenamed":1538,"Ġta":1539,"Ġneg":1540,"TER":1541,"Ġ'.'":1542,"chars":1543,"uto":1544,"tle":1545,"title":1546,"Ġvariable":1547,"count":1548,"Ġiri":1549,"vious":1550,"new":1551,"ĠLibrary":1552,"Ġmin":1553,"Ġurlconf":1554,"Th":1555,"Ġpformat":1556,"Co":1557,"group":1558,"port":1559,"lookup":1560,"64":1561,"men":1562,"sep":1563,"ĠCOMMENT":1564,"has":1565,"Ġextra":1566,"future":1567,"first":1568,"ses":1569,"Ġgroup":1570,"Ġstrings":1571,"scapeData":1572,"ĠEscapeData":1573,"lasses":1574,"Ġprevious":1575,"literals":1576,"ĠMulti":1577,"Con":1578,"QU":1579,"dle":1580,"iddle":1581,"Ġends":1582,"iddleware":1583,"COMMENT":1584,"types":1585,"mented":1586,"Ġhttp":1587,"FORM":1588,"Ġ(?":1589,"index":1590,"erver":1591,"01":1592,"ute":1593,"contain":1594,"Ġraw":1595,"Ġbuiltins":1596,"core":1597,"Ġversion":1598,"ulting":1599,"lowed":1600,"callback":1601,"LTER":1602,"mportError":1603,"ĠFILTER":1604,"ld":1605,"Ġold":1606,"method":1607,"none":1608,"comp":1609,"Ġconditional":1610,"--":1611,"Ġliteral":1612,"uncator":1613,"ĠTruncator":1614,"ĠVariableNode":1615,"ĠDebugParser":1616,"Ġinstan":1617,"Ġinstanti":1618,"Ġtitle":1619,"Ġwhi":1620,"Ġreceive":1621,"ĠW":1622,"CON":1623,"TP":1624,"Ġwrap":1625,"Ġmake":1626,"ci":1627,"ccur":1628,"ory":1629,"Ġoccur":1630,"http":1631,"Ġlimit":1632,"ify":1633,"ĠRE":1634,"RL":1635,"Ġwrite":1636,"encode":1637,"GI":1638,"Lexer":1639,"cookies":1640,"Ġcan":1641,"ĠDebugLexer":1642,"Ġ'\\\\":1643,"Redirect":1644,"+)":1645,"anged":1646,"create":1647,"Base":1648,"ack":1649,"ĠText":1650,"arguments":1651,"De":1652,"OST":1653,"ll":1654,"ĠParser":1655,"required":1656,"stack":1657,"nodes":1658,"tin":1659,"Ġcallback":1660,"Ġlowercase":1661,".',":1662,"argspec":1663,"Ġgetargspec":1664,"Ġvalidators":1665,"ET":1666,"Ġword":1667,"OUN":1668,"ffix":1669,"fail":1670,"mutable":1671,"Ġback":1672,"classes":1673,"olute":1674,"[^":1675,"number":1676,"expected":1677,"Ġoccurrence":1678,"200":1679,"Ġsave":1680,"alt":1681,"mi":1682,"Ġexclude":1683,"IE":1684,"sq":1685,"ĠTag":1686,"Ġalen":1687,"Ġplen":1688,"\\\\]*":1689,"year":1690,"Ġtokens":1691,"lines":1692,"RI":1693,"Ġfiles":1694,"cookie":1695,"Ġsm":1696,"Ġseri":1697,"Ġ\"<":1698,"Ġinstantiate":1699,"hoice":1700,"uage":1701,"nguage":1702,"()":1703,"Ġrequired":1704,"quo":1705,"Ġstate":1706,"Ġcolle":1707,"\".":1708,"ume":1709,"post":1710,"Ġwarning":1711,"Ens":1712,"ĠLexer":1713,"Ensure":1714,"suffix":1715,"Ġqueryset":1716,"Ġsome":1717,"all":1718,"verbatim":1719,"Ġforms":1720,"getitem":1721,"XT":1722,"Ġcomp":1723,"lugify":1724,"Ġ\"_":1725,"Value":1726,"min":1727,"reaks":1728,"host":1729,"Ġwithout":1730,"andom":1731,"Ġfound":1732,"eric":1733,"TEXT":1734,"breaks":1735,"Ġstartswith":1736,"ĠDE":1737,"ep":1738,"builtins":1739,"andid":1740,"AU":1741,"Could":1742,"Ġreceived":1743,"pl":1744,"Ġsalt":1745,"Ġ':":1746,"])":1747,"Ġrandom":1748,"\"\"":1749,"CH":1750,"ries":1751,"RO":1752,"open":1753,"Ġcollect":1754,"col":1755,"ĠME":1756,"validators":1757,"ĠImportError":1758,"hoiceField":1759,".%":1760,"Ġcommit":1761,"ĠMETA":1762,"orted":1763,"resolved":1764,"Ġtried":1765,"Ġwarnings":1766,"ast":1767,"sign":1768,"Ġ40":1769,"Ġday":1770,"TTP":1771,"sgi":1772,"Warning":1773,"Ġcheck":1774,"Ġfilename":1775,"handlers":1776,"Date":1777,"Lo":1778,"current":1779,"Django":1780,"IC":1781,"|%(":1782,"Ġentry":1783,"sin":1784,"Ġscheme":1785,"formats":1786,"Ġopts":1787,"since":1788,"Ġresulting":1789,"losed":1790,"verse":1791,"Ġunique":1792,"ĠSimple":1793,"Ġgener":1794,"pare":1795,"Ġview":1796,"lear":1797,"Ġtop":1798,"places":1799,"quote":1800,"([":1801,"Helper":1802,"Ġfin":1803,"ĠTagHelper":1804,"ĠTagHelperNode":1805,"changed":1806,"ROR":1807,"dent":1808,"unclosed":1809,"esca":1810,"moved":1811,"ERROR":1812,"Ġcleaned":1813,"escaping":1814,"Ġsmal":1815,"TRI":1816,"rint":1817,"ATTRI":1818,"struc":1819,"ĠG":1820,"SGI":1821,"Un":1822,"pattern":1823,"assert":1824,"Ġlinebreaks":1825,"MA":1826,"ec":1827,"Ġungettext":1828,"objects":1829,"BUTE":1830,"ATTRIBUTE":1831,".\",":1832,"__.":1833,"asci":1834,"ascii":1835,"BLOCK":1836,"]+":1837,"pect":1838,"checks":1839,"Ġcsrf":1840,"Ġnorm":1841,"Ġconf":1842,"ultiple":1843,"InDjango":1844,"ĠRemoved":1845,"ĠRemovedInDjango":1846,"Ġsmart":1847,"month":1848,"Set":1849,"items":1850,"Ġte":1851,"ste":1852,"|%":1853,"em":1854,"Ġ'\"'":1855,"clean":1856,"Ġmemo":1857,"Ġapps":1858,"delete":1859,"Ġboundary":1860,"Ġdigit":1861,"onent":1862,"Ġ>=":1863,"second":1864,"lob":1865,"ĠModel":1866,")|":1867,"just":1868,"Ġexponent":1869,"compiler":1870,"Ġgeneric":1871,"ĠTextNode":1872,"Ġindent":1873,"Ġcore":1874,"AD":1875,"ĠR":1876,"Ġglob":1877,"Ġentries":1878,"DecodeError":1879,"Ġsmaller":1880,"Ġonly":1881,"FAU":1882,"LT":1883,"epcopy":1884,"FAULT":1885,"request":1886,"Sear":1887,"TH":1888,"qs":1889,"Ġclo":1890,"ching":1891,"Searching":1892,"UP":1893,"replace":1894,"ĠUnicodeDecodeError":1895,"Ġ\"'\"":1896,"Ġread":1897,"lice":1898,"Ġmod":1899,"ized":1900,"ssing":1901,"Ġoccurrences":1902,"kip":1903,"clus":1904,"anag":1905,"parent":1906,"Ġloader":1907,"Ġescapejs":1908,"backout":1909,"Ġbackout":1910,"Ġip":1911,"Time":1912,"Ġbreak":1913,"nodelists":1914,"trans":1915,"other":1916,"ush":1917,"Ġauto":1918,"how":1919,"dq":1920,"Ġdlen":1921,"strsq":1922,"strdq":1923,"ĠHttpResponseNot":1924,"Ġserialize":1925,"Ġsum":1926,"loop":1927,"Ġglobal":1928,"/'":1929,"ĠField":1930,"ckle":1931,"ĠCh":1932,"ies":1933,"ou":1934,"Ġcharacters":1935,"Ġabsolute":1936,"help":1937,"Ġ/":1938,"raw":1939,"tegerField":1940,"clusion":1941,"Ġcookies":1942,"Ġper":1943,"Ġload":1944,"urlconf":1945,"bits":1946,"scheme":1947,"Ġskip":1948,"Ġmore":1949,"tocol":1950,"timezone":1951,"Ġupload":1952,"son":1953,"Ġig":1954,"Ġreload":1955,"nore":1956,"Ġtab":1957,"Pop":1958,"SL":1959,"be":1960,"loader":1961,"ĠUN":1962,"Ġtimezone":1963,"ĠContextPop":1964,"ĠContextPopException":1965,"Iter":1966,"hidden":1967,"dia":1968,"VAR":1969,"questContext":1970,"aries":1971,"tespace":1972,"Ġwidth":1973,"Ġwhitespace":1974,"reset":1975,"Ġits":1976,"csrf":1977,"Ġpy":1978,"gin":1979,"Ġ'{":1980,"ĠStr":1981,"FORMAT":1982,"Ġl":1983,"tokens":1984,"lation":1985,"Ġupdates":1986,"oined":1987,"raries":1988,"exception":1989,"Ġjoined":1990,"Ġlibraries":1991,"Ġ'__":1992,"choice":1993,"ARG":1994,"ĠO":1995,"</":1996,"middleware":1997,"Ġtu":1998,"Ġprec":1999,"pects":2000,"Ġtupl":2001,"Ġwhitespaces":2002,"mentNode":2003,"Ġexit":2004,"Ġupper":2005,"missing":2006,"Ġ20":2007,"ĠHttpResponseRedirect":2008,"Ġposi":2009,"ĠString":2010,"Ġpower":2011,"BRA":2012,"ub":2013,"ĠFilter":2014,"ĠSING":2015,"ĠIntegerField":2016,"Ġrow":2017,"BRACE":2018,"ĠSINGLE":2019,"Ġ200":2020,"ChoiceField":2021,"OUND":2022,"Ġunclosed":2023,"Ġdb":2024,"Ġsup":2025,"hi":2026,"urlize":2027,"Ġurlize":2028,"Ġtimesince":2029,"BUG":2030,"ĠStringOrigin":2031,")\",":2032,"ĠOrigin":2033,"Location":2034,"Ġwidgets":2035,"too":2036,"Ġ30":2037,"Expression":2038,"Ġlanguage":2039,"ĠFilterExpression":2040,"domain":2041,"Widget":2042,"deepcopy":2043,"ĠAssign":2044,"ĠAssignmentNode":2045,"Ġhandler":2046,"Ġcompare":2047,"Ġinsert":2048,"Ġcharset":2049,"Ġlookups":2050,"tools":2051,"unique":2052,"Ġenter":2053,"info":2054,"PRO":2055,"nontext":2056,"Ġ\"\\":2057,"Ġitems":2058,"Ġignore":2059,"Ġresolver":2060,">%(":2061,"separ":2062,"ason":2063,"charset":2064,"PE":2065,"Ġ8":2066,"Ġqs":2067,"models":2068,"Ġ(?:":2069,"Tr":2070,"enter":2071,"Ġmatches":2072,"Ġwords":2073,"Ġparsed":2074,"Ġ'-":2075,"Ġdir":2076,"ilent":2077,"Ġnewline":2078,"ĠContextDict":2079,"any":2080,"ity":2081,"oreign":2082,")\"":2083,"Ġbegin":2084,"Ġfloat":2085,"ĠWSGI":2086,"ĠDEFAULT":2087,"Server":2088,"Ġkeyword":2089,"Ġreverse":2090,"Ġfinal":2091,"Ġclose":2092,"Ġthat":2093,"ASE":2094,"find":2095,"wrap":2096,"Ġtemplatetag":2097,"Ġenume":2098,"CHAR":2099,"Ġenumer":2100,"iterable":2101,"HTTP":2102,"IRE":2103,"Ġdepre":2104,"DATE":2105,"LD":2106,"__'":2107,"row":2108,"QUE":2109,"Ġdecon":2110,"compati":2111,"Ġselect":2112,"ified":2113,"ent":2114,"sing":2115,"response":2116,"ĠIP":2117,"Handler":2118,"candid":2119,"Ġunescape":2120,"container":2121,"candidates":2122,"Ġsupport":2123,"ull":2124,"Ġchoice":2125,"Ġurlquote":2126,"FormSet":2127,"File":2128,"ten":2129,"Ġparts":2130,"plication":2131,"Ġcontains":2132,"ĠRegex":2133,"Ġiterable":2134,"Ġverbatim":2135,"sable":2136,"Ġ(%":2137,"im":2138,"ĠMultiValue":2139,"UN":2140,"tible":2141,"Ġremain":2142,"Ġ')":2143,"ody":2144,"Ġmeta":2145,"Encoding":2146,"structible":2147,"Ġdeconstructible":2148,"aliz":2149,"ĠURL":2150,"Ġendtag":2151,"Ġnormalize":2152,"true":2153,"__.__":2154,"ollow":2155,"ĠAL":2156,"streaming":2157,"not":2158,"SON":2159,"Ġ'.":2160,"Ġ'_(":2161,"Ġflatten":2162,":%":2163,"Ġspec":2164,"unter":2165,"ĠNot":2166,"Ġdelta":2167,"day":2168,"ĠRequestContext":2169,"RAN":2170,"Ġ6":2171,"ird":2172,"Ġthird":2173,"Ġendswith":2174,">\\":2175,"TY":2176,"ulate":2177,"decimal":2178,"Imple":2179,"UMENT":2180,"kend":2181,"mentedError":2182,"stead":2183,"Ġpython":2184,"ARGUMENT":2185,"ĠNotImple":2186,"ĠNotImplementedError":2187,"OOK":2188,"ĠĠĠĠĠĠĠĠĠĠĠ":2189,"OOKIE":2190,"Cookie":2191,"ODE":2192,"Ġfl":2193,"Ġinstead":2194,"ference":2195,"umn":2196,"NOW":2197,"mitted":2198,"emon":2199,"KNOW":2200,"mt":2201,"Ġprotocol":2202,"oint":2203,"Resolver":2204,"Request":2205,"KNOWN":2206,"'t":2207,"Ġexec":2208,"vars":2209,"ative":2210,"ĠIPv":2211,"OOKIES":2212,"ported":2213,"telist":2214,"Ġorder":2215,"ĠDebugNode":2216,"TION":2217,"META":2218,"boundary":2219,"contains":2220,"Ġdecode":2221,"Ġcontin":2222,"Ġcontinue":2223,"NT":2224,"show":2225,"tream":2226,"Ġredirect":2227,"could":2228,"Ġgenerated":2229,"select":2230,"20":2231,"gac":2232,"ures":2233,"tize":2234,"Ġmessages":2235,"Ġcolumn":2236,"failures":2237,"ĠHttpResponseRedirectBase":2238,"gacy":2239,"=%":2240,"silent":2241,"sity":2242,"Ġpoint":2243,"ĠCo":2244,"subject":2245,"bosity":2246,"gi":2247,"ves":2248,"Ġslice":2249,"Ġanother":2250,"Ġwsgi":2251,"legacy":2252,"Ġtokenize":2253,"EncodeError":2254,"ĠEmail":2255,"ĠUnicodeEncodeError":2256,"[^'":2257,"ache":2258,"rname":2259,"igu":2260,"Ġ400":2261,"Ġ'_'":2262,"DEBUG":2263,">\"":2264,"TED":2265,"upload":2266,"ĠDebugVariable":2267,"ĠDebugNodeList":2268,"ĠDebugVariableNode":2269,"Ġresults":2270,"Ġiteration":2271,"Ġwraps":2272,"Ġserver":2273,"Ġcookie":2274,"Ġmay":2275,"Post":2276,"UT":2277,"Ġsimple":2278,"unicode":2279,"upported":2280,"ĠSelect":2281,"Ġrun":2282,"compatible":2283,"_.":2284,"sca":2285,"Ġpost":2286,"Ġmap":2287,"Ġmodels":2288,"\"\\\\]*":2289,")*":2290,">[":2291,"^(?":2292,"float":2293,"ial":2294,"setitem":2295,"Ġnan":2296,"eta":2297,"needs":2298,"\\\\.":2299,"iddenInput":2300,"(?:\\\\.":2301,"lookups":2302,"[^\"\\\\]*":2303,"]+|%(":2304,"anagement":2305,"Ġspecial":2306,"[^'\\\\]*":2307,">[%(":2308,"floats":2309,"dered":2310,"The":2311,"ĠMultiValueDict":2312,"HOST":2313,"Ġz":2314,"Ġav":2315,"Ġ304":2316,"ĠDate":2317,"Ġaddress":2318,"Ġtimeout":2319,"Ġ`":2320,"Ġflo":2321,"Ġnone":2322,"Ġ50":2323,"igured":2324,"404":2325,"For":2326,"MAR":2327,"WED":2328,"Ġrel":2329,"Ġ'/'":2330,"ĠTRAN":2331,"diter":2332,"LOWED":2333,"closed":2334,"Conf":2335,"DateTime":2336,"SLATOR":2337,"QUEST":2338,"MARK":2339,"ĠTRANSLATOR":2340,"?\\":2341,"odified":2342,"perly":2343,"ĠĠĠĠĠĠĠĠĠĠĠĠĠĠĠĠĠĠĠĠĠĠ":2344,"Ġgot":2345,"nsion":2346,"(\\":2347,"HAL":2348,"Text":2349,"ature":2350,"seri":2351,"stamp":2352,"lencode":2353,"loading":2354,"ĠROUND":2355,"HALF":2356,"Ġpartial":2357,"Ġhand":2358,"Ġchild":2359,"Ġhandle":2360,"HE":2361,"PUT":2362,"helper":2363,"slugify":2364,"Ġslugify":2365,"Ġcc":2366,"old":2367,"Ġcompiled":2368,"INPUT":2369,"Ġ41":2370,"Ġprovide":2371,"configs":2372,"CES":2373,"oreignKey":2374,"make":2375,"Ġquery":2376,"validate":2377,"ĠDjango":2378,"box":2379,"PP":2380,"ptime":2381,"Ġns":2382,"mpro":2383,"Ġfunctools":2384,"ĠTemplateEncoding":2385,"ĠImpro":2386,"Unclosed":2387,"Configured":2388,"perlyConfigured":2389,"ĠTemplateEncodingError":2390,"ĠImproperlyConfigured":2391,"igra":2392,"lineno":2393,"Ġlineno":2394,"newlines":2395,"This":2396,"Al":2397,"RCE":2398,"SOU":2399,"eq":2400,"Ġesca":2401,"Ġpi":2402,"ĠUNKNOWN":2403,"True":2404,"SOURCE":2405,"Ġescaper":2406,"Ġsetlist":2407,"Ġpack":2408,"next":2409,"Ġsty":2410,"delitem":2411,"Ġstyle":2412,"You":2413,"Ġprint":2414,"Ġpackage":2415,"*?":2416,"-%":2417,"Cache":2418,"XY":2419,"bidden":2420,"expects":2421,"TENT":2422,"Forbidden":2423,"Multiple":2424,"ĠJ":2425,"Ġnamed":2426,"ultipart":2427,"widgets":2428,"URL":2429,"ph":2430,"Ġunits":2431,"exp":2432,"Ġprocessor":2433,"Ġ'\\\\'":2434,"Ġpositional":2435,"ĠCommand":2436,"ĠĠĠĠĠĠĠĠĠĠĠĠĠĠĠĠĠĠĠĠĠĠĠĠĠĠĠĠĠĠĠĠĠ":2437,"ĠALLOWED":2438,".*?":2439,"FIE":2440,"Sign":2441,"Ġformfield":2442,"application":2443,"Ġtabs":2444,".*?%":2445,"FIELD":2446,"ain":2447,"Ġcls":2448,"Le":2449,"VER":2450,"[\\":2451,"cated":2452,"fin":2453,"si":2454,"Ġleast":2455,"Ġ':'":2456,"Length":2457,"save":2458,"Ġfix":2459,"''":2460,"cleaned":2461,"Ġreason":2462,"Ġallow":2463,"PH":2464,"[-":2465,"Ġfname":2466,"Ġdis":2467,"nderContext":2468,"Ġurlencode":2469,"SET":2470,"ĠRenderContext":2471,"subclasses":2472,"Ġdeprecated":2473,"}'":2474,"sting":2475,">\",":2476,"counter":2477,"now":2478,"nsupported":2479,"tract":2480,"NOT":2481,"Ġtruncatechars":2482,"='":2483,"allowed":2484,"Ġ'--":2485,"resolver":2486,"ackend":2487,"alizer":2488,"br":2489,"fk":2490,"pan":2491,"ĠSimpleNode":2492,"rel":2493,"Ġclear":2494,"project":2495,"dirs":2496,"Ġexecu":2497,"Add":2498,"Unsupported":2499,"oth":2500,"Ġbf":2501,"Ġboth":2502,"ĠTime":2503,"builti":2504,"Ġchars":2505,"Address":2506,"builtin":2507,"Ġpush":2508,"ating":2509,"ha":2510,"tal":2511,"extend":2512,"timeout":2513,"Ġobjects":2514,"ĠInclusion":2515,"submodule":2516,"llback":2517,"ĠInclusionNode":2518,"als":2519,"Ġ..":2520,"Ġincremented":2521,",\\":2522,"Empty":2523,"USE":2524,"mpor":2525,"annot":2526,"Ġtimeuntil":2527,"words":2528,"Ġtruncatewords":2529,"Ġflup":2530,"WAR":2531,"ning":2532,"input":2533,"Ġnum":2534,"texts":2535,"filename":2536,"Ġnegative":2537,"Ġexecution":2538,"cgi":2539,"Ġcannot":2540,"Ġ42":2541,"Ġbuild":2542,"Ġassignment":2543,"QUIRE":2544,"ĠREQUIRE":2545,"CESS":2546,"ĠREQUIRED":2547,"na":2548,"po":2549,"Ġtranslate":2550,"Part":2551,"Ġthere":2552,"Ġpgettext":2553,"closable":2554,"PartParser":2555,"19":2556,"Ġpub":2557,"Ġmedia":2558,"Ġjson":2559,"false":2560,"follow":2561,"int":2562,"rgs":2563,"Ġnofollow":2564,"Ġmutable":2565,"Ġsetdefault":2566,"ĠFile":2567,"parser":2568,"Ġstackle":2569,"Ġstacklevel":2570,"OT":2571,"Ġreturned":2572,"nsions":2573,"arField":2574,"largs":2575,"Ġ\",":2576,"Ġgetcal":2577,"exclude":2578,"result":2579,"Ġgetcallargs":2580,"ION":2581,"order":2582,"unget":2583,"ĠNumber":2584,"ĠĠĠĠĠĠĠĠĠĠĠĠĠĠĠĠĠĠĠ":2585,"ĠUnexpected":2586,"ĠTokenParser":2587,"(?:[":2588,"Ġyears":2589,"Ġmonths":2590,"ĠSimpleCookie":2591,"ĠNumberInput":2592,")?":2593,"ters":2594,"Ġsubtract":2595,"Ġmapp":2596,"Ġtell":2597,"translate":2598,"Ġmapping":2599,"oid":2600,"ĠEx":2601,"ped":2602,"safestring":2603,"Ġsafestring":2604,"Ġdictsort":2605,"fter":2606,"wo":2607,"Ġafter":2608,"Ġtwo":2609,"cket":2610,"struct":2611,"-\\":2612,"whi":2613,"reg":2614,"Ġunpack":2615,"IA":2616,"body":2617,"vir":2618,"cri":2619,"Ġsen":2620,"ĠTemplateDoesNotExist":2621,"Ġprepare":2622,"ĠBaseValidator":2623,"Ġ'<%":2624,"crip":2625,"_%":2626,"Ġda":2627,"https":2628,"\"\"\"":2629,"HttpResponse":2630,"ql":2631,"Ġsort":2632,"Ġsql":2633,"Ġext":2634,"Ġ'.',":2635,"derr":2636,"ablePost":2637,"readablePost":2638,"Ġdirs":2639,"readablePostError":2640,".'.":2641,"rro":2642,"write":2643,"Ġ';":2644,"OD":2645,"]?\\":2646,"msg":2647,"Ġtable":2648,"validator":2649,"ĠHiddenInput":2650,"Ġnamespaces":2651,"ĠMultiPartParser":2652,">',":2653,"ump":2654,"ĠĠĠĠĠĠĠĠĠĠĠĠĠĠĠ":2655,"Ġbut":2656,"Ġallowed":2657,"ĠGET":2658,"EC":2659,"act":2660,"wsgi":2661,"Ġmo":2662,"ight":2663,"ĠSplit":2664,"output":2665,"ĠUnreadablePostError":2666,"Ġfks":2667,"OUNT":2668,"ICODE":2669,"PROCESS":2670,"Ġ'-'":2671,"print":2672,"Ġtotal":2673,"Ġmulti":2674,"play":2675,"IL":2676,"isting":2677,"nume":2678,"Ġsize":2679,"rever":2680,"Ġpprint":2681,"top":2682,"ric":2683,"astcgi":2684,"wrapping":2685,"Ġavoid":2686,"numeric":2687,"reversed":2688,"origin":2689,"Ġsurro":2690,"extra":2691,"56":2692,"COUNT":2693,"Select":2694,"Ġemail":2695,"Ġsubnode":2696,"Ġfilesize":2697,"Ġtranslation":2698,"Ġdisplay":2699,"Meta":2700,"eted":2701,"Ġopen":2702,"Ġmultiple":2703,"Ġfilepath":2704,"datetime":2705,"TIME":2706,"Ġperform":2707,"Ġfloating":2708,"cure":2709,"fact":2710,"Ġraised":2711,"labels":2712,"REQUEST":2713,"Ġhttpd":2714,"factory":2715,"bound":2716,"pop":2717,"ply":2718,"Ġ\"\"":2719,"Ġiterator":2720,"ĠRegexValidator":2721,"db":2722,"Ġdirect":2723,"Ġunders":2724,"ĠCOOKIES":2725,"Ġbeginning":2726,"Ġcandid":2727,"Ġ\"\\\\":2728,"ĠFILE":2729,"schemes":2730,"Ġcandidate":2731,"]{":2732,"cle":2733,"ycle":2734,"language":2735,"Ġconcate":2736,"ĠStop":2737,"ĠCommandError":2738,"Ġconcaten":2739,"Model":2740,"tive":2741,"decode":2742,"Ġprepend":2743,"Ġmultiply":2744,"Match":2745,"ĠRA":2746,"Ġfail":2747,"Ġmime":2748,"Ġmiddleware":2749,"ĠForeignKey":2750,"MAPP":2751,"MAPPING":2752,"dout":2753,"Ġput":2754,"Ġnewlines":2755,"umps":2756,"Modified":2757,"Ġsorted":2758,"ments":2759,"arch":2760,"Ġnon":2761,"Ġstrptime":2762,"namespace":2763,"rase":2764,"quires":2765,"OUT":2766,"Ġ','":2767,"Content":2768,"phrase":2769,"whitelist":2770,"viron":2771,").'":2772,"scrip":2773,"remove":2774,"\\\\'":2775,"Ġgenerator":2776,"ĠCharField":2777,"MultipleChoiceField":2778,"Ġdaemon":2779,"abs":2780,"hone":2781,"Ġphone":2782,"Ġhidden":2783,"cores":2784,"Ġthread":2785,"Ġescaped":2786,"FORMATS":2787,"Ġunderscores":2788,"=\"":2789,"ssed":2790,"Ġ'%(":2791,"Ġtemp":2792,"Ġdirectory":2793,">'.":2794,"ero":2795,"Ġsetter":2796,"sonResponse":2797,"Ġ')'":2798,").":2799,"Ġsi":2800,"conver":2801,"Ġappendlist":2802,"Ġipv":2803,"fmt":2804,"Ġsto":2805,"exit":2806,"Ġcap":2807,"ĠPOST":2808,"Ġremaining":2809,"Ġconcatenate":2810,"DLE":2811,"auto":2812,"Ġmode":2813,"server":2814,"Ġlocation":2815,"datadict":2816,"Ġevaluate":2817,"register":2818,"34":2819,"css":2820,"of":2821,"tity":2822,"sent":2823,"Ġ'\"":2824,"ĠTO":2825,"Ġexpression":2826,"expr":2827,"ĠBad":2828,"Ġlabels":2829,"json":2830,"DateWidget":2831,"translation":2832,"Allowed":2833,"ĠJsonResponse":2834,"Ġcalc":2835,"itable":2836,"Ġdivi":2837,"Ġkeys":2838,"ched":2839,"Ġintegers":2840,"Ġ\"_(":2841,"Ġdivide":2842,"span":2843,"Ġ'^":2844,"ani":2845,"isallowed":2846,"ĠDisallowed":2847,"status":2848,"NA":2849,"ĠBASE":2850,"Ġsysid":2851,"ĠCheck":2852,"Ġpubid":2853,"ĠFA":2854,"ĠHttp":2855,"ĠUSE":2856,"Ġlocalized":2857,"Ġsignals":2858,"ĠHttpResponseNotAllowed":2859,"CHARSET":2860,"Ġpickle":2861,"Ġenumerate":2862,"Ġenumerated":2863,"Ġside":2864,"'\\":2865,"ILE":2866,"VARIABLE":2867,"sor":2868,"}'.":2869,"Ġ7":2870,"Ġ9":2871,"Ġcenter":2872,"state":2873,"Ġplist":2874,"opts":2875,"SER":2876,"Ġrjust":2877,"Ġsigning":2878,"Ġencoder":2879,"Ġljust":2880,"CHARS":2881,"Ġcapfirst":2882,"IO":2883,"update":2884,"localize":2885,"Ġhandlers":2886,"ĠWSGIServer":2887,"Ġcalculate":2888,"AN":2889,"Backend":2890,"clear":2891,"ĠIN":2892,"lared":2893,"Ġport":2894,"log":2895,"ALPH":2896,"ternal":2897,"ĠIO":2898,"ABET":2899,"ĠPY":2900,"Ġdecimals":2901,"CONTEXT":2902,"Ġpermitted":2903,"ALPHABET":2904,"$'":2905,"Ġrequires":2906,"Ġuser":2907,".\".":2908,"methods":2909,"nown":2910,"Type":2911,"ili":2912,"multipart":2913,"run":2914,"ĠError":2915,"Ġcur":2916,"ĠNON":2917,"Ġfiled":2918,"ValueValidator":2919,"ERRORS":2920,"LengthValidator":2921,"Ġcursor":2922,"None":2923,"ĠLo":2924,"convert":2925,">%":2926,"king":2927,"ors":2928,"lease":2929,"ĠUse":2930,"Ġverbosity":2931,"ADER":2932,"ĠHttpResponseNotModified":2933,"anitize":2934,"Ġmw":2935,"ĠForm":2936,"ĠBaseModel":2937,"absolute":2938,"Ġstore":2939,"ĠIOError":2940,"ytes":2941,"|[":2942,"Ġfp":2943,"Ġimportlib":2944,"ĠHTTP":2945,"ĠHttpResponseBase":2946,"ĠLoo":2947,"Ġ\"<%":2948,"DateTimeWidget":2949,"AddressField":2950,"est":2951,"erce":2952,"Ġinverse":2953,"ĠSign":2954,"Ġhash":2955,"Ġ'\\\\\"'":2956,"Ġ'\\\\\\\\'":2957,"tinal":2958,"sition":2959,"position":2960,"Ġsentinal":2961,"NAME":2962,"GE":2963,"GN":2964,"JSON":2965,"Stream":2966,"empor":2967,"warn":2968,"etlo":2969,"Ġdecre":2970,"ĠBytes":2971,"Encode":2972,"etloc":2973,"mage":2974,"alters":2975,"Ġwarn":2976,"ĠBytesIO":2977,"YPE":2978,"mod":2979,"vis":2980,"ren":2981,"ĠTYPE":2982,"Ġ25":2983,"raise":2984,"Ġformset":2985,"formset":2986,"quence":2987,"Ġheaders":2988,"Ġdid":2989,"Inline":2990,"localized":2991,"Ġschemes":2992,"script":2993,"InlineFormSet":2994,"234":2995,"78":2996,"Tempor":2997,"rame":2998,"alField":2999,"validation":3000,"Ġattributes":3001,"Ġurlsplit":3002,"ĠBaseTempor":3003,"Ġfinally":3004,"5678":3005,"2345678":3006,"ĠBaseTemporalField":3007,"23456789":3008,":/":3009,"Ġdirname":3010,"ange":3011,"ĠBaseInlineFormSet":3012,"done":3013,"ic":3014,"lur":3015,"allow":3016,"Ġplur":3017,"Inf":3018,"Ġseen":3019,"Ġtimestamp":3020,"JSONEncode":3021,"Header":3022,"Ġquote":3023,"tensions":3024,"Ġappen":3025,"setting":3026,"Ġaltern":3027,"Ġappended":3028,"Boolean":3029,"POR":3030,"xy":3031,"{}":3032,"ĠResolver":3033,"Ġio":3034,"reverse":3035,"tic":3036,"ingHttpResponse":3037,"templates":3038,"Ġdecorated":3039,"Ġsender":3040,"Ġstatic":3041,"ĠExpected":3042,"PY":3043,"Ġnetloc":3044,"coerce":3045,"ĠĠĠĠĠĠĠĠĠĠĠĠĠĠĠĠĠĠĠĠĠĠĠ":3046,"aile":3047,"flow":3048,"hes":3049,"slas":3050,"slice":3051,"Ġrepre":3052,"Ġexc":3053,"Ġexpected":3054,"Ġsetattr":3055,"Ġdivis":3056,"connection":3057,"verflow":3058,"ool":3059,"Ġcreation":3060,"Ġyes":3061,"Ġaddslas":3062,"iterator":3063,"Ġvary":3064,"loatField":3065,"hould":3066,"CONTENT":3067,"failure":3068,"sql":3069,"ĠOverflow":3070,"Ġfloatformat":3071,"Ġremainder":3072,"ĠDjangoJSONEncode":3073,"ĠMultiPartParserError":3074,"Ġthreading":3075,"ĠLooking":3076,"ailed":3077,"Ġaddslashes":3078,"ĠOverflowError":3079,"False":3080,"Ġdumps":3081,"tried":3082,"lient":3083,"Ġmany":3084,"map":3085,"Regex":3086,"Ġ\"\\\\'\"":3087,"(.":3088,"*%(":3089,"+\\.":3090,"=)?":3091,"BO":3092,"non":3093,"Ġ^(?":3094,"star":3095,"etag":3096,"ĠNo":3097,"Ġ\"(?:":3098,"ĠStream":3099,"escapejs":3100,"ĠTokenparser":3101,"Variables":3102,"Ġrollback":3103,"+)=)?":3104,"Iteration":3105,"Ġ(?:\\":3106,"Ġ(?:%(":3107,"Ġ'_('":3108,"(?:\\\\.[^\"\\\\]*":3109,"(?:\\\\.[^'\\\\]*":3110,"[^\"\\\\]*(?:\\\\.[^\"\\\\]*":3111,"[^'\\\\]*(?:\\\\.[^'\\\\]*":3112,"[-+\\.":3113,"ĠStopIteration":3114,"Ġrepresent":3115,"(.+)":3116,"BOSE":3117,"ĠStreamingHttpResponse":3118,"+)=)?(.+)":3119,"[^\"\\\\]*(?:\\\\.[^\"\\\\]*)*":3120,"[^'\\\\]*(?:\\\\.[^'\\\\]*)*":3121,"[-+\\.]?\\":3122,"))":3123,"ab":3124,"setter":3125,"Ġchunks":3126,"Ġconnections":3127,"anager":3128,"TYPE":3129,"EY":3130,"Failed":3131,"IP":3132,"KEY":3133,"NU":3134,"TO":3135,"UE":3136,"frame":3137,"ner":3138,"Ġret":3139,"rge":3140,"rget":3141,"target":3142,"child":3143,"Ġ100":3144,"Ġ404":3145,"Ġyou":3146,"ĠDecimalField":3147,"0123456789":3148,"Ġ':',":3149,"Ġ403":3150,"Ġfinditer":3151,"step":3152,"finditer":3153,"started":3154,"NUM":3155,"IME":3156,"like":3157,"Ġsurround":3158,"_,":3159,"bind":3160,"ftp":3161,"Ġac":3162,"rater":3163,"ĠChoiceField":3164,"Ġgrater":3165,"ORS":3166,"OREC":3167,"Ġbeen":3168,"both":3169,"signer":3170,"MAIL":3171,"silently":3172,"URLResolver":3173,"GNOREC":3174,"GNORECASE":3175,"aulting":3176,"fto":3177,"manager":3178,"Ġdefaulting":3179,"__,":3180,"Ġgue":3181,"SES":3182,"IDDLE":3183,"exceptions":3184,"Ġuppercase":3185,"igrations":3186,"WARE":3187,"IDDLEWARE":3188,"hist":3189,"tif":3190,"Ġmain":3191,"utf":3192,"lists":3193,"comple":3194,"Ġdatabase":3195,"Ġheaderlist":3196,"ĠModelForm":3197,"Signature":3198,"Ġhashlib":3199,"history":3200,"Ġreturns":3201,"iteritems":3202,"process":3203,"ath":3204,"spare":3205,"Ġtoo":3206,"ameter":3207,"Ġlet":3208,"DED":3209,"Ġzero":3210,"igration":3211,"IPAddressField":3212,")-":3213,"POST":3214,"Vary":3215,"WSGI":3216,"kes":3217,"att":3218,"takes":3219,"names":3220,"ĠMe":3221,"Ġrepresentation":3222,"-]{":3223,"rs":3224,"tpon":3225,"orrect":3226,"latin":3227,"antize":3228,"idth":3229,"verbosity":3230,"Ġunexpected":3231,"quantize":3232,"Reverse":3233,"Ġ500":3234,"Ġseparator":3235,"ĠURLValidator":3236,"expires":3237,"PROCESSORS":3238,"populate":3239,"tponly":3240,"CT":3241,"Ġfastcgi":3242,"ĠNOT":3243,"ches":3244,"ĠVER":3245,"Ġiteritems":3246,"ĠFormSet":3247,"Ġsurrounding":3248,"..":3249,"CDE":3250,"cdef":3251,"ft":3252,"ghi":3253,"jk":3254,"pq":3255,"vw":3256,"Ġshow":3257,"Ġthem":3258,"tuvw":3259,"terac":3260,"Ġmost":3261,"Ġstringformat":3262,"Ġexpects":3263,"Ġ\"%(":3264,"Ġ204":3265,"dictionary":3266,"ĠMin":3267,"ĠMax":3268,"Ġlinenumber":3269,"ABCDE":3270,"Ġiriencode":3271,"xyz":3272,"abcdef":3273,"rstuvw":3274,"ghijk":3275,"pqrstuvw":3276,"teractive":3277,"Ġlinenumbers":3278,"ABCDEF":3279,"abcdefghijk":3280,"pqrstuvwxyz":3281,"Bad":3282,"Please":3283,"eight":3284,"join":3285,"ole":3286,"Ġroot":3287,"Ġsetlistdefault":3288,"ĠDjangoJSONEncoder":3289,"Ġguessed":3290,"'([":3291,"CGI":3292,"pi":3293,"Ġsend":3294,"debug":3295,"Ġ\"([":3296,"Ġusing":3297,"timesince":3298,"Ġrsplit":3299,"CONT":3300,"])\"":3301,"])\",":3302,"])'([":3303,"Ġposition":3304,"SSL":3305,"Ġremo":3306,"lat":3307,"Ġ\"[":3308,"iste":3309,"moves":3310,"ĠIf":3311,"Ġmoves":3312,"ĠBaseModelFormSet":3313,"complete":3314,"six":3315,"used":3316,"Ġthen":3317,"rno":3318,"existing":3319,"Ġ410":3320,"daemon":3321,"patterns":3322,"Ġloading":3323,"Ġprintable":3324,"ility":3325,"Ġplural":3326,"Ġremov":3327,"HI":3328,"Ġcut":3329,"Ġwas":3330,"ĠTh":3331,"construct":3332,"Ġparameter":3333,"Ġsep":3334,"created":3335,"Ġbuf":3336,"://":3337,"istered":3338,"AGE":3339,"Found":3340,"ties":3341,"secure":3342,"chunk":3343,"handle":3344,"defaultfilters":3345,"CHE":3346,"Ġ405":3347,"DateTimeField":3348,"ĠDisallowedRedirect":3349,"Ġ|":3350,"ĠOR":3351,"Ġoper":3352,"fork":3353,"Ġstatements":3354,"Ġfixture":3355,"46":3356,"AY":3357,"width":3358,"Ġinclusion":3359,"roug":3360,"Ġtrim":3361,"utc":3362,"ĠCON":3363,"ĠUnicodeError":3364,"Ġsocket":3365,"----":3366,"Ġwhitelist":3367,"loopvars":3368,"separated":3369,"ĠDateTime":3370,"ĠTOO":3371,"ILED":3372,"PORTED":3373,"ĠNoReverse":3374,"rough":3375,"ĠCONTENT":3376,"ĠNoReverseMatch":3377,"GET":3378,"cs":3379,"sys":3380,"lic":3381,"tach":3382,"Ġleft":3383,"Ġthrough":3384,"Ġeverything":3385,"urlconfs":3386,"Ġ...'":3387,"JK":3388,"KB":3389,"LM":3390,"Me":3391,"MIDDLEWARE":3392,"PQ":3393,"RST":3394,"UV":3395,"WXY":3396,"ai":3397,"fore":3398,"lm":3399,"}\\.":3400,"ĠKB":3401,"Ġsing":3402,"Ġer":3403,"ular":3404,"trunc":3405,"tras":3406,"ĠTB":3407,"version":3408,"past":3409,"Ġ301":3410,"nopqrstuvwxyz":3411,"ener":3412,"ĠMB":3413,"Ġurlparse":3414,"cls":3415,"Ġposs":3416,"Ġtypes":3417,"ĠPB":3418,"ĠTextInput":3419,"Ġwordcount":3420,"Ġwordwrap":3421,"ĠGB":3422,"Ġnormal":3423,"Ġurlizetrunc":3424,"Ġ302":3425,"separators":3426,"ABCDEFG":3427,"abcdefghijklm":3428,"JKLM":3429,"PQRST":3430,"UVWXY":3431,"ailable":3432,"abcdefghijklmnopqrstuvwxyz":3433,"PQRSTUVWXY":3434,"PQRSTUVWXYZ":3435,"fer":3436,"rodu":3437,"location":3438,"Ġdeleted":3439,"Ġ...',":3440,"EX":3441,"Email":3442,"ImportError":3443,"No":3444,"ru":3445,"remo":3446,"seq":3447,"Ġdif":3448,"cached":3449,"exc":3450,"Ġsafeseq":3451,"Ġpassword":3452,"defaulttags":3453,"Ġstriptags":3454,"Ġlinebreaksbr":3455,"RequestHandler":3456,"expi":3457,"ODIF":3458,"TIMEOUT":3459,"etags":3460,"Ġremovetags":3461,"removal":3462,"COOKIES":3463,"elf":3464,"ordered":3465,"Ġbody":3466,"Ġhint":3467,"serializer":3468,"!#":3469,"ACHE":3470,"ISE":3471,"SError":3472,"TF":3473,"ender":3474,"tls":3475,"ww":3476,"thread":3477,"Ġtpl":3478,"unsplit":3479,"ssl":3480,"verter":3481,"Ġunget":3482,"ĠFloatField":3483,"build":3484,"Ġstderr":3485,"ressed":3486,"ĠUTF":3487,"Ġurlunsplit":3488,"Ġ<=":3489,"Ġremoved":3490,"Ġpopitem":3491,"Ġpatterns":3492,"cious":3493,"ĠOSError":3494,"PROXY":3495,"ferences":3496,"Ġmaybe":3497,"Ġdictsortreversed":3498,"ĠRAISE":3499,"ĠMedia":3500,"...\"":3501,"Ġdifference":3502,"DIRE":3503,"reason":3504,"Ġfull":3505,"Ġ'(":3506,"Ġ'='":3507,"ĠTIME":3508,"Iterator":3509,"DIRECT":3510,"24":3511,"IED":3512,"PRE":3513,"WOR":3514,"]\\":3515,"gment":3516,"ible":3517,"lefto":3518,"keyword":3519,"Ġunsign":3520,"ragment":3521,"Ġaddr":3522,"Ġ'_(\"'":3523,"ĠEmailValidator":3524,"ODIFIED":3525,"...\">'":3526,"leftover":3527,"Ġcycle":3528,"Ġmanagement":3529,"Ġasvar":3530,"Ġchain":3531,"Ġwhole":3532,"Ġ';',":3533,"BAD":3534,"DI":3535,"OL":3536,"OP":3537,"Per":3538,"Spare":3539,"]|":3540,"so":3541,"Ġweight":3542,"stderr":3543,"ĠInput":3544,"ATION":3545,"001":3546,"Ġsigned":3547,"oundaryIter":3548,"groups":3549,"Ġgroups":3550,"ĠUNICODE":3551,"UNICODE":3552,"Ġzlib":3553,"Ġalternate":3554,"Ch":3555,"management":3556,"omp":3557,"who":3558,"Ġdecomp":3559,"Ġstdout":3560,"Ġsequence":3561,"ALIA":3562,"Converter":3563,"Ġsaved":3564,"HeaderError":3565,"whole":3566,"Ġdecompress":3567,"ALIAS":3568,"Ġste":3569,"Ġiden":3570,"Ġover":3571,"trol":3572,"Exha":3573,"mac":3574,"usted":3575,"NOPQRSTUVWXYZ":3576,"Ġ';'":3577,"StreamExha":3578,"UES":3579,"BadRequest":3580,"HIJKLM":3581,"ABCDEFGHIJKLM":3582,"Ġstep":3583,"StreamExhausted":3584,"ABCDEFGHIJKLMNOPQRSTUVWXYZ":3585,"&'":3586,"Ġprodu":3587,"Ġgetter":3588,"Ġcount":3589,"DEFAULT":3590,"FF":3591,"Gone":3592,"US":3593,"Use":3594,"dis":3595,"gener":3596,"alized":3597,"Ġcorrect":3598,"Ġconstruc":3599,"Ġmail":3600,"ĠHeader":3601,"Ġseconds":3602,"VALUES":3603,"Templates":3604,"Command":3605,"ĠWidget":3606,"ICATION":3607,"Ġclosable":3608,"ServerError":3609,"Ġ\"[%":3610,"Ġidentity":3611,"generate":3612,"Ġconstructed":3613,"LA":3614,"can":3615,"ral":3616,"tural":3617,"append":3618,"socket":3619,"To":3620,"mark":3621,"pat":3622,"ref":3623,"Ġany":3624,"Ġwill":3625,"Ġdebug":3626,"rollback":3627,"page":3628,"editable":3629,"STCGI":3630,"Ġenviron":3631,"ĠĠĠĠĠĠĠĠĠĠĠĠĠĠĠĠĠĠĠĠĠĠĠĠĠĠ":3632,"MPTY":3633,"protocol":3634,"CEP":3635,"ullBoolean":3636,"stampSign":3637,"ĠTimestampSign":3638,"Ġdaemonize":3639,"ĠBadHeaderError":3640,"ĠFASTCGI":3641,"Ġerrno":3642,"ĠTimestampSigner":3643,"Ġfollow":3644,"depre":3645,"Ġtempdir":3646,"Ġdecremented":3647,"$',":3648,"62":3649,"Block":3650,"email":3651,"Ġfmt":3652,"Ġfragment":3653,"Ġpri":3654,"Ġelt":3655,"vent":3656,"igr":3657,"ckled":3658,"mmutable":3659,"ĠMON":3660,"Ġmsgs":3661,"ĠHttpResponseBadRequest":3662,"ĠHttpResponseGone":3663,"ĠHttpResponseServerError":3664,"subs":3665,"Ġitertools":3666,"FORWAR":3667,"Ġencoded":3668,"compat":3669,"ĠModelMultipleChoiceField":3670,"THS":3671,"ĠWSGIHandler":3672,"ĠRegexURLResolver":3673,"Ġpickled":3674,"ĠSplitDateTimeWidget":3675,"ĠMONTHS":3676,"FORWARDED":3677,"trac":3678,"atom":3679,"Ġ\"\"\"":3680,"extras":3681,"Ġdeprecation":3682,"deprecation":3683,"atomic":3684,"@'":3685,"CCEP":3686,"iew":3687,"man":3688,"Ġshould":3689,"Ġ'|":3690,"Ġ'@'":3691,"Ġdefin":3692,"Ġunordered":3693,"strs":3694,"ĠView":3695,"Ġlog":3696,"Ġchanged":3697,"ĠHttpResponseForbidden":3698,"checkbox":3699,"forloop":3700,"Ġcomma":3701,"ĠHttpResponseNotFound":3702,"entRedirect":3703,"ĠSelectDateWidget":3704,"HEAD":3705,"Ġsides":3706,"Perman":3707,"ĠInputStreamExhausted":3708,"PermanentRedirect":3709,")'":3710,"EMAIL":3711,"migr":3712,"Ġrepr":3713,"Ġinclude":3714,"rosecond":3715,"Ġdeclared":3716,"ands":3717,"ssage":3718,"Ġ'_',":3719,"Ġlru":3720,"natural":3721,"Ġoperands":3722,"Ġfollowing":3723,"COL":3724,"VED":3725,"av":3726,"fl":3727,"Ġtmp":3728,"stdout":3729,"lict":3730,"Ġunused":3731,"Ġbases":3732,"Ġregistered":3733,"ĠSus":3734,"tplib":3735,"digest":3736,"deleted":3737,"ĠMultiple":3738,"Ġsmtplib":3739,"hosts":3740,"Trans":3741,"haust":3742,"SelectDateWidget":3743,"SERVER":3744,"Ġletter":3745,")-(\\":3746,"picious":3747,"Ġpossib":3748,"ĠSuspicious":3749,"'^":3750,"Pro":3751,"pub":3752,"Ġ'*":3753,"Ġconstruct":3754,"Ġextensions":3755,"Ġoption":3756,"digit":3757,"Ġcompress":3758,"requests":3759,"Ġreadline":3760,"Message":3761,"Com":3762,"DIC":3763,"Var":3764,"spect":3765,"tup":3766,"tures":3767,"Ġ'#":3768,"Ġ'}":3769,"Ġinspect":3770,"Ġpdict":3771,"callable":3772,"RequestContext":3773,"ĠHttpResponsePermanentRedirect":3774,"apps":3775,"Ġbefore":3776,"unknown":3777,"RADIC":3778,"prefixes":3779,"mission":3780,"ĠTags":3781,"Loader":3782,"ĠModelChoiceField":3783,"Ġ'{#":3784,"Ġ'{%":3785,"Ġ'{{":3786,"ĠFileField":3787,"CONTRADIC":3788,"lators":3789,"}\\.\\":3790,"Ġ'(%":3791,"disposition":3792,"licts":3793,"Translators":3794,"Comment":3795,"CONTRADICTION":3796,"push":3797,"Ġsanitize":3798,"merge":3799,"err":3800,"Ġbitwise":3801,"options":3802,"ĠMeta":3803,"database":3804,"Ġrange":3805,"ĠBaseConverter":3806,"ELD":3807,"Hidden":3808,"bool":3809,"eRegex":3810,"rc":3811,"vate":3812,"Ġage":3813,"stal":3814,"Ġdeepcopy":3815,"cer":3816,"Ġhex":3817,"dime":3818,"permitted":3819,"ENG":3820,"environ":3821,"caleRegex":3822,"Ġsignature":3823,"ĠFIELD":3824,"Ġloopvars":3825,"indexes":3826,"signed":3827,"Ġviewname":3828,"ĠWSGIRequestHandler":3829,"ĠEmailBackend":3830,"ĠDateField":3831,"ĠDateInput":3832,"Allow":3833,"Ġmove":3834,"ĠRAW":3835,"ĠBadSignature":3836,"ĠLocaleRegex":3837,"Ġdivision":3838,"Ġsubtrac":3839,"Ġmeth":3840,"keys":3841,"ask":3842,"Ġused":3843,"Ġright":3844,"creation":3845,"Ġwhich":3846,"image":3847,"ĠJSON":3848,"Ġsubtracted":3849,"ASON":3850,"ForeignKey":3851,"QL":3852,"aw":3853,"aware":3854,"hed":3855,"hmac":3856,"iver":3857,"Ġthey":3858,"unded":3859,"istry":3860,"strptime":3861,"ished":3862,"ĠSQL":3863,"eneric":3864,"lineForeignKey":3865,"Ġsecure":3866,"ĠInlineForeignKey":3867,"ĠModified":3868,"Ġlocale":3869,"RASES":3870,"Ġvale":3871,"ĠWarning":3872,"ĠREQUEST":3873,"ĠREASON":3874,"Unexpected":3875,"Ġ//":3876,"Ġloads":3877,"finished":3878,"PHRASES":3879,"resolvers":3880,"bindAddress":3881,"enericIPAddressField":3882,"ĠInlineForeignKeyField":3883,"Name":3884,"lin":3885,"sanitize":3886,"Ġreraise":3887,"integer":3888,"Ġbound":3889,"declared":3890,"Ġcolor":3891,"Ġconditions":3892,"ĠDEBUG":3893,"\"',":3894,"ITY":3895,"LTI":3896,"MU":3897,"NENT":3898,"Path":3899,"UTH":3900,"WAY":3901,"bility":3902,"nk":3903,"rch":3904,"slug":3905,"td":3906,"ĠENT":3907,"ĠERROR":3908,"ĠĠĠĠĠĠĠĠĠĠĠĠ":3909,"send":3910,"lank":3911,"idna":3912,"ORI":3913,"Ġapply":3914,"ĠAUTH":3915,"ATEWAY":3916,"ENTICATION":3917,"ĠLARG":3918,"ERMA":3919,"ĠEMPTY":3920,"delim":3921,"Ġhttponly":3922,"ĠPRO":3923,"CONDI":3924,"ĠREDIRECT":3925,"Ġserializer":3926,"AUTH":3927,"UPPORTED":3928,"separate":3929,"anagementForm":3930,"Ġavailable":3931,"ĠFAILED":3932,"TOCOL":3933,"ĠTIMEOUT":3934,"PRECONDI":3935,"dimensions":3936,"MULTI":3937,"rchive":3938,"ĠENTITY":3939,"ĠAUTHENTICATION":3940,"ĠLARGE":3941,"ERMANENT":3942,"AUTHORI":3943,"PRECONDITION":3944,"fastcgi":3945,"many":3946,"migrations":3947,"Ġaction":3948,"Ġsh":3949,"reraise":3950,"search":3951,"Ġinteractive":3952,"Ġbackend":3953,"lated":3954,"Ġsearch":3955,"]*'":3956,"compare":3957,"qsl":3958,"loaders":3959,"daemonize":3960,"):":3961,"HiddenInput":3962,"If":3963,"MTP":3964,"ges":3965,"wn":3966,"ython":3967,"tities":3968,"anded":3969,"Ġexisting":3970,"Ġ\")\"":3971,"pages":3972,"ableFile":3973,"Ġusername":3974,"ĠClear":3975,"Ġurlresolvers":3976,"DataException":3977,"Ġexpanded":3978,"Ġcondition":3979,"Control":3980,"years":3981,"Ġchecks":3982,"Unsafe":3983,"Ġconflicts":3984,"months":3985,"Ġflush":3986,"PostDataException":3987,"ĠTimeInput":3988,"Metaclass":3989,"ANG":3990,"EmailBackend":3991,"ĠMultipleHiddenInput":3992,"awPostDataException":3993,"ableFileInput":3994,"ĠClearableFileInput":3995,"'>\"":3996,"'>\",":3997,"Up":3998,"full":3999,"util":4000,"Ġdest":4001,"Ġapplication":4002,"Ġorig":4003,"ERY":4004,"QUERY":4005,"Ġcheckbox":4006,"Ġmethof":4007,"$%":4008,"*+":4009,",.":4010,"/=":4011,"17":4012,"?^":4013,"URE":4014,"]+)":4015,"_`":4016,"blank":4017,"fo":4018,"otif":4019,"|~":4020,"}</":4021,"Ġke":4022,"Ġtil":4023,"references":4024,"elist":4025,"Ġfil":4026,"tiv":4027,"Ġcss":4028,"Ġclasses":4029,"nts":4030,"Ġwiht":4031,"getstate":4032,"Ġelem":4033,"Ġparsing":4034,"Ġcounter":4035,"Ġproject":4036,"Ġlengths":4037,"parsing":4038,"TAL":4039,"dateformat":4040,"Ġdateformat":4041,"Ġmodelform":4042,"ĠDecimalException":4043,"Ġreceiver":4044,"013":4045,"014":4046,"016":4047,"HEADER":4048,"[-!#":4049,"Ġmodes":4050,"Typed":4051,"{}|~":4052,"expired":4053,"&'*+":4054,"stalled":4055,"$%&'*+":4056,"/=?^":4057,"177":4058,"_`{}|~":4059,"otify":4060,"Ġtill":4061,"Ġfilelist":4062,"Ġelemnts":4063,"Ġcounters":4064,"[-!#$%&'*+":4065,"/=?^_`{}|~":4066,"[-!#$%&'*+/=?^_`{}|~":4067,"\"(?:":4068,"'[-+\\.]?\\":4069,"SION":4070,"\\.\"":4071,"bd":4072,"ek":4073,"pid":4074,"Ġquo":4075,"Ġ)?":4076,"Ġ)\"\"\"":4077,"Ġanbd":4078,"Ġ'[-+\\.]?\\":4079,"Ġ\"^(?":4080,"Ġdigest":4081,"Ġ\"'[^'\\\\]*(?:\\\\.[^'\\\\]*)*":4082,"Ġ<<":4083,"'\"[^\"\\\\]*(?:\\\\.[^\"\\\\]*)*":4084,"(?:%(":4085,"(?:(?":4086,"\"'[^'\\\\]*(?:\\\\.[^'\\\\]*)*":4087,"]*',":4088,"Ġflatatt":4089,"\\.\",":4090,"+)(?:%(":4091,")|(?":4092,")|^(?":4093,"Ġitself":4094,"Ġ')',":4095,"Ġ')'.":4096,"Ġ'_(',":4097,"VERBOSE":4098,")?)\",":4099,"Ġ'\"[^\"\\\\]*(?:\\\\.[^\"\\\\]*)*":4100,"Ġ\"_(\"":4101,"Ġ\"(?:%(":4102,"Ġ\"(?:(\\":4103,"+)=)?(.+)\"":4104,"+)=)?(.+)\",":4105,")))?)\",":4106,"ĠVERBOSE":4107,"\"(?:(\\":4108,"Ġquotes":4109,"Ġ\"'[^'\\\\]*(?:\\\\.[^'\\\\]*)*'\",":4110,"'\"[^\"\\\\]*(?:\\\\.[^\"\\\\]*)*\"'":4111,"\"'[^'\\\\]*(?:\\\\.[^'\\\\]*)*'\"":4112,"Ġ'\"[^\"\\\\]*(?:\\\\.[^\"\\\\]*)*\"',":4113,"(\\.":4114,">{":4115,"CRE":4116,"fla":4117,"import":4118,"ĠOr":4119,"only":4120,"lace":4121,"Ġemit":4122,"Ġinver":4123,"Ġbad":4124,"Ġplace":4125,"lit":4126,"Ġsubstitutions":4127,"Ġ[%":4128,"Ġobtain":4129,"tagname":4130,"nored":4131,"Ġtagname":4132,"ĠSEC":4133,"Ġoutdict":4134,"Ġyour":4135,"Ġmodelformset":4136,"Ġ/>'":4137,"TIONS":4138,"ĠTimeField":4139,"settings":4140,"Ġstaticmethod":4141,"flags":4142,":\\":4143,"IGNORECASE":4144,"ckend":4145,"Ġnow":4146,"'.\"":4147,"umask":4148,"Ġpaths":4149,"backend":4150,"ĠIGNORECASE":4151,"Ġabspath":4152,"+)?":4153,"filenames":4154,"Ġproduct":4155,"25":4156,"={":4157,"ITI":4158,"LENG":4159,"MODIFIED":4160,"bject":4161,"client":4162,"uter":4163,"Ġslug":4164,"Ġspan":4165,"ĠCon":4166,"ĠAuto":4167,"Ġ1024":4168,"ization":4169,"CONF":4170,"Ġdigittuple":4171,"Ġ/>',":4172,"ĠSelectMultiple":4173,"ordering":4174,"ĠSplitHidden":4175,"ĠErrorList":4176,"Ġsingle":4177,"WORD":4178,"Ġkeep":4179,"={!":4180,"ITIAL":4181,"LENGTH":4182,"ĠSplitHiddenDateTimeWidget":4183,"aded":4184,"Ġcomb":4185,"Ġcaches":4186,"Ġinitialization":4187,"Ġurllib":4188,"maxchild":4189,"maxspare":4190,"Ġmaxsize":4191,"readlines":4192,"urllib":4193,"(),":4194,"minspare":4195,"deredDict":4196,"WSGIServer":4197,"ĠOrderedDict":4198,"maxchildren":4199,"!-":4200,")+":4201,",}":4202,"<!-":4203,"?\\.":4204,"CACHE":4205,"FO":4206,"FOUND":4207,"SU":4208,"Sub":4209,"\\]":4210,"](?:[":4211,"cted":4212,"fol":4213,"have":4214,"iped":4215,"rb":4216,"ritable":4217,"}[":4218,"Ġquantize":4219,"test":4220,"unpa":4221,"Ġpatch":4222,"Ġstriped":4223,"Ġexhaust":4224,"ders":4225,"ustom":4226,"ĠBaseEmailBackend":4227,"(?<!-":4228,"Ġattach":4229,"directory":4230,"])?\\.":4231,"ĠRawPostDataException":4232,"naive":4233,"Ġsurrounded":4234,"ĠCheckbox":4235,"OPTIONS":4236,"ĠViewDoesNotExist":4237,",}(?<!-":4238,"folders":4239,"])?\\.)+":4240,"_'":4241,"ali":4242,"Ġunion":4243,"Ġlists":4244,"Ġhard":4245,"Ġ'%',":4246,"formfield":4247,"com":4248,"Ġ\"%\"":4249,"signals":4250,"Ġdirpath":4251,"serializ":4252,"Ġdecrement":4253,"ĠMinValueValidator":4254,"ĠMinLengthValidator":4255,"ĠMaxValueValidator":4256,"ĠMaxLengthValidator":4257,"\">%":4258,"Multi":4259,"Object":4260,"PAT":4261,"dn":4262,"fq":4263,"oField":4264,"ridden":4265,"Ġsrc":4266,"remain":4267,"reloader":4268,"tual":4269,"Ġargset":4270,"Ġbool":4271,"caches":4272,"exclusion":4273,"extensions":4274,"instances":4275,"ĠMED":4276,"Reference":4277,"Ġtransfer":4278,"overridden":4279,"ĠTOTAL":4280,"ternalReference":4281,"ĠSignal":4282,"Ġdivisible":4283,"fqdn":4284,"remaining":4285,"exclusions":4286,"ĠMEDIA":4287,"ternalReferenceForbidden":4288,"got":4289,"Ġutc":4290,"internal":4291,"Ġot":4292,"terator":4293,"Ġmd":4294,"contra":4295,"diction":4296,"ĠSTA":4297,"'.\",":4298,"Ġtuples":4299,"ĠIterator":4300,"Ġcommas":4301,"ĠSigner":4302,"Upload":4303,"Ġinverted":4304,"contradiction":4305,"STED":4306,"Tag":4307,"UAGE":4308,"WI":4309,"ftime":4310,"spe":4311,"ĠLOCK":4312,"Ġsig":4313,"ree":4314,"cessed":4315,"rospe":4316,"ĠNullBoolean":4317,"Ġmigrations":4318,"varlist":4319,"Ġlevel":4320,"Ġbyte":4321,"ENC":4322,"Ġlazy":4323,"Ġobjec":4324,"ĠManagementForm":4325,"ONG":4326,"REQUE":4327,"mboField":4328,"Ġparentloop":4329,"lugField":4330,"namespaces":4331,"Ġtempfile":4332,"attname":4333,"ĠDateTimeInput":4334,"PathField":4335,"ANGUAGE":4336,"Subclasses":4337,"ĠCheckboxInput":4338,"rospection":4339,"REQUESTED":4340,"(\"":4341,"),":4342,"?)":4343,"DB":4344,"user":4345,"yes":4346,"Ġ(\"":4347,"inverse":4348,"Ġwritable":4349,"Ġsubmitted":4350,"Ġmcs":4351,"Ġstat":4352,"option":4353,"Ġxreadlines":4354,"Ġseparate":4355,"Ġrawdata":4356,"ected":4357,"ĠThe":4358,"';":4359,".\\":4360,"?|[":4361,"Host":4362,"Image":4363,"MO":4364,"cr":4365,"dj":4366,"een":4367,"equal":4368,"foreign":4369,"known":4370,"ljust":4371,"nter":4372,"pp":4373,"rjust":4374,"ween":4375,"Ġali":4376,"media":4377,"center":4378,"etween":4379,"Ġmedi":4380,"conv":4381,"pair":4382,"exist":4383,"Ġbaseconv":4384,"ĠDefu":4385,"Ġalread":4386,"Ġoriginal":4387,"erializer":4388,"Ġ'</":4389,"Ġwrapped":4390,"alling":4391,"structures":4392,"FileEx":4393,"ĠEmailInput":4394,"ĠDisallowedHost":4395,"ĠINITIAL":4396,"ĠVERSION":4397,"ĠDateTimeField":4398,"migrate":4399,"unpack":4400,"';'":4401,"Ġalias":4402,"Ġmedium":4403,"ĠDefused":4404,"Ġalready":4405,"70":4406,"CLA":4407,"Jan":4408,"LANGUAGE":4409,"MT":4410,"SSES":4411,"hib":4412,"Ġsilent":4413,"incomplete":4414,"Ġemethod":4415,"Ġinner":4416,"Ġus":4417,"Ġformated":4418,"Ġcached":4419,"Ġ00":4420,"Ġ01":4421,"prepend":4422,"Ġ','.":4423,"Ġrouter":4424,"Thu":4425,"compress":4426,"ĠGMT":4427,"1970":4428,"serializers":4429,"Ġ'*'":4430,"CLASSES":4431,")',":4432,":[":4433,":]+":4434,"FILE":4435,"TUS":4436,"must":4437,"npath":4438,"nMETA":4439,"nPOST":4440,"nGET":4441,"nCOOKIES":4442,"os":4443,"should":4444,"zA":4445,"Ġfd":4446,"ormp":4447,"inotify":4448,"Ġnine":4449,"Ġnotation":4450,"andard":4451,"Ġregistry":4452,"Ġneed":4453,"Ġstandard":4454,"Ġprocessed":4455,"linebreaks":4456,"ĠBoundaryIter":4457,"vider":4458,"ĠMigration":4459,"ĠImmutable":4460,"Entities":4461,"unkIter":4462,"username":4463,"]*:[":4464,"compressed":4465,"Ġcompressed":4466,"signing":4467,"ĠChunkIter":4468,"Ġuploadhandler":4469,"Ġpyinotify":4470,"entries":4471,"HOSTS":4472,"='{}":4473,"Ġpublic":4474,"ĠCheckMessage":4475,"system":4476,"www":4477,"Provider":4478,"ĠLocaleRegexProvider":4479,"Ġemitting":4480,"PATH":4481,"ĠSTATUS":4482,"(\"%":4483,"ormpath":4484,"ĠImmutableList":4485,"EntitiesForbidden":4486,"='{}',":4487,"issing":4488,"Ġad":4489,"Ġsy":4490,"Ġmic":4491,"Ġmissing":4492,"INTER":4493,"STAT":4494,"Ġurljoin":4495,"Ġnegate":4496,"serialized":4497,"Ġsential":4498,"=\"{":4499,"servers":4500,"Ġ\"_('\"":4501,"Ġ\"_('\",":4502,"Ġmicrosecond":4503,"ACCEP":4504,"IM":4505,"Mix":4506,"area":4507,"azy":4508,"mode":4509,"mary":4510,"sive":4511,"}{":4512,"Ġrela":4513,"Ġreloader":4514,"Ġ'/":4515,"Ġ']":4516,"Ġmigration":4517,"Ġless":4518,"ignore":4519,"oducer":4520,"Ġregular":4521,"httponly":4522,"ĠDWORD":4523,"></":4524,"tokenize":4525,"maxSpare":4526,"ĠBaseCache":4527,"LOADER":4528,"ĠImage":4529,"Ġdelim":4530,"ĠLazy":4531,"producer":4532,"delta":4533,"cursive":4534,"6400":4535,"minSpare":4536,"Ġ':'.":4537,"Ġboundarystream":4538,"Ġignored":4539,"Ġ86400":4540,"Ġtables":4541,"orsel":4542,"BooleanField":4543,"ĠResolverMatch":4544,"Ġretval":4545,"Ġprivate":4546,"flup":4547,"Ġapplying":4548,"Ġshutil":4549,"tivated":4550,"ĠNullBooleanSelect":4551,"Ġrelative":4552,"Ġdelimiter":4553,"ĠLazyStream":4554,"One":4555,"ccess":4556,"cycle":4557,"ĠYou":4558,"sequence":4559,"Ġsuccess":4560,"ssword":4561,"attach":4562,"loaded":4563,"exec":4564,"localhost":4565,"Ġ',',":4566,"Ġinstantiated":4567,"mic":4568,"compatibility":4569,"sysid":4570,"appendlist":4571,"pubid":4572,"])?\\.)+(?:[":4573,"exists":4574,"Ġsuccessive":4575,"16":4576,"BoundaryIter":4577,"CODE":4578,"Mem":4579,"Xml":4580,"action":4581,"cull":4582,"ition":4583,"ited":4584,"mro":4585,"mtime":4586,"store":4587,"oday":4588,"Ġdst":4589,"Ġdot":4590,"terBoundaryIter":4591,"Ġ%%":4592,"ooleanField":4593,"Ġprohib":4594,"setstate":4595,"ĠBooleanField":4596,"ĠInterBoundaryIter":4597,"Ġalter":4598,"quire":4599,"ĠPython":4600,"initialize":4601,"atives":4602,"separator":4603,"ToOne":4604,"Ġdefinition":4605,"wnload":4606,"MOVED":4607,"ĠDefusedXml":4608,"Ġprohibited":4609,"ĠDefusedXmlException":4610,"$\"":4611,"':":4612,"Multipart":4613,"OTI":4614,"Serializer":4615,"Ġimage":4616,"Ġreset":4617,"Ġtz":4618,"Ġtoge":4619,"Ġbetween":4620,"Ġpot":4621,"ading":4622,"parsed":4623,"ĠIt":4624,"ĠEMAIL":4625,"Ġmodify":4626,"Ġusage":4627,"Ġtogether":4628,"BID":4629,"Choice":4630,"DER":4631,"EF":4632,"Mm":4633,"Nn":4634,"NAL":4635,"Yy":4636,"bEF":4637,"dumps":4638,"fd":4639,"fname":4640,"ier":4641,"tx":4642,"elated":4643,"Ġctx":4644,"inator":4645,"Ġinstalled":4646,"Ġpat":4647,"Ġsubmod":4648,"Ġmultipart":4649,"Ġuclass":4650,"aginator":4651,"Ġcould":4652,"Ġfieldname":4653,"setlist":4654,"Ġsetup":4655,"plitext":4656,"paths":4657,"ONE":4658,"iterlists":4659,"itercompat":4660,"property":4661,"Ġiterlists":4662,"Ġitercompat":4663,"mplement":4664,"commands":4665,"ĠModelChoice":4666,"ĠRelated":4667,"helptext":4668,"Ġrunfastcgi":4669,"Ġmapped":4670,"Ġzip":4671,"Ġ'---":4672,"ĠSplitDateTimeField":4673,"tifier":4674,"Ġsocketserver":4675,"Ġsingular":4676,"ĠSECURE":4677,"ĠAutoField":4678,"MmNn":4679,"bEFMmNn":4680,"ĠModelChoiceIterator":4681,"ĠRelatedObject":4682,"fault":4683,"Ġclient":4684,"Ġrecursive":4685,"Ġinline":4686,"Ġprocess":4687,"ĠDefault":4688,"outlog":4689,"Ġformatted":4690,"Ġ-=":4691,"blocks":4692,"Ġserialized":4693,"saved":4694,"Ġ'|'":4695,"errlog":4696,"Ġhexdigest":4697,"pidfile":4698,"?)-(\\":4699,"Nom":4700,"SO":4701,"Token":4702,"bad":4703,"cnt":4704,"cip":4705,"ient":4706,"})-(\\":4707,"tension":4708,"rer":4709,"elen":4710,"Ġfcnt":4711,"ork":4712,"tio":4713,"derer":4714,"Ġcgi":4715,"thext":4716,"inates":4717,"Ġbp":4718,"timeuntil":4719,"Ġpathext":4720,"ĠCACHE":4721,"setdefault":4722,"Ġseek":4723,"TATION":4724,"may":4725,"Ġcommands":4726,"ĠBaseCommand":4727,"Ġmaxlin":4728,"ystem":4729,"Ġnumbers":4730,"Ġidx":4731,"ROOT":4732,"ĠGenericIPAddressField":4733,"ĠMultiValueField":4734,"ĠURLInput":4735,"ANDLE":4736,"ilities":4737,"Ġletters":4738,"populated":4739,"cachedCache":4740,"Ġoverla":4741,"Ġpossibility":4742,"Ġpossibilities":4743,"ĠSuspiciousOperation":4744,"CREATE":4745,"ĠContent":4746,"ĠDefaults":4747,"Nominates":4748,"cipient":4749,"Ġfcntl":4750,"Ġmaxlinelen":4751,"'(?:":4752,"Archive":4753,"LY":4754,"_.'":4755,"md":4756,"norm":4757,"rsplit":4758,"Ġtheir":4759,"Ġ'}'":4760,"Ġ'}'.":4761,"Ġsure":4762,"Ġconsi":4763,"Ġfunctions":4764,"Ġ\"^":4765,"Ġ'%}'":4766,"Ġ'%}'.":4767,"comm":4768,"Ġpair":4769,"ĠMA":4770,"'\"'":4771,"Ġ'{'":4772,"Ġ'{'.":4773,"Ġ'.'.":4774,"_.'.":4775,"abcdefghijklmnopqrstuvwxyzABCDEFGHIJKLMNOPQRSTUVWXYZ":4776,"Ġ'|'.":4777,"Ġ'#}'":4778,"Ġ'#}'.":4779,"Ġ'}}'":4780,"Ġ'}}'.":4781,"Ġ'{#'":4782,"Ġ'{#'.":4783,"Ġ'{%'":4784,"Ġ'{%'.":4785,"Ġ'{{'":4786,"Ġ'{{'.":4787,"alias":4788,"INTERNAL":4789,"Ġconsisting":4790,"#-":4791,"36":4792,"Calling":4793,"Http":4794,"MIN":4795,"SI":4796,"cc":4797,"cit":4798,"pri":4799,"salt":4800,"sMetaclass":4801,"zero":4802,"Ġimpor":4803,"tected":4804,"Ġans":4805,"arative":4806,"Ġpend":4807,"Ġpaginator":4808,"Ġexpli":4809,"condi":4810,"Ġassert":4811,"riter":4812,"ARY":4813,"ĠTemplateLoader":4814,"ĠCODE":4815,"entity":4816,"prepare":4817,"ORAGE":4818,"FieldsMetaclass":4819,"ĠDecl":4820,"ĠMIN":4821,"ĠTyped":4822,"ĠĠĠĠĠĠĠĠĠĠĠĠĠĠĠĠĠĠĠĠ":4823,"ĠĠĠĠĠĠĠĠĠĠĠĠĠĠĠĠĠĠĠĠĠĠĠĠ":4824,"neToOne":4825,"MPLE":4826,"locale":4827,"Ġevaluated":4828,"FORMS":4829,"Decimal":4830,"Ġcollection":4831,"colon":4832,"MAX":4833,"ĠOneToOne":4834,"UNKNOWN":4835,"PPED":4836,"VERLA":4837,"ĠExternalReferenceForbidden":4838,"Ġdidn":4839,"allows":4840,"nonzero":4841,"Ġaccess":4842,"Ġprimary":4843,"Ġdefining":4844,"LOADERS":4845,"ĠMAX":4846,"citly":4847,"Ġimporting":4848,"arativeFieldsMetaclass":4849,"Ġpending":4850,"Ġexplicitly":4851,"ĠDeclarativeFieldsMetaclass":4852,"ĠOneToOneField":4853,"VERLAPPED":4854,"IS":4855,"Middleware":4856,"\\[":4857,"range":4858,"|\\[":4859,"Ġfn":4860,"altern":4861,"interactive":4862,"Ġselected":4863,"less":4864,"__',":4865,"Ġcalling":4866,"Ġ16":4867,"Ġtimes":4868,"maxrequests":4869,"Ġblocks":4870,"Ġsystem":4871,"Thread":4872,"rendered":4873,"Ġcyclevars":4874,",]+":4875,"11":4876,"26":4877,"31":4878,"AP":4879,"AV":4880,"AIL":4881,"AILED":4882,"By":4883,"BLE":4884,"Class":4885,"CTED":4886,"CTATION":4887,"DEN":4888,"DForbidden":4889,"EG":4890,"Ele":4891,"EADER":4892,"FIABLE":4893,"FAILED":4894,"GRA":4895,"GHE":4896,"GATEWAY":4897,"GONE":4898,"HO":4899,"IAL":4900,"IENT":4901,"ICE":4902,"ICES":4903,"LIC":4904,"Min":4905,"Max":4906,"MEN":4907,"NON":4908,"NET":4909,"NDED":4910,"PLE":4911,"PART":4912,"PEND":4913,"PAY":4914,"PERMANENT":4915,"SUPPORTED":4916,"SWI":4917,"TCH":4918,"TORAGE":4919,"TDForbidden":4920,"URI":4921,"VE":4922,"VICE":4923,"XTE":4924,"ZED":4925,"dry":4926,"ptions":4927,"self":4928,"tty":4929,"Ġter":4930,"ĠRAN":4931,"Ġsal":4932,"Ġimmutable":4933,"tect":4934,"tical":4935,"Ġ'?":4936,"Ġinfo":4937,"Ġresource":4938,"ĠNEG":4939,"Ġ\"----":4940,"Ġ201":4941,"Ġ226":4942,"Ġunknown":4943,"ĠFOUND":4944,"ritical":4945,"Ġ300":4946,"serList":4947,"notes":4948,"TEMP":4949,"TECTED":4950,"ĠSAT":4951,"ĠSER":4952,"ĠSupported":4953,"ĠSUPPORTED":4954,"ĠSTORAGE":4955,"ĠCHO":4956,"INUE":4957,"INFO":4958,"INSU":4959,"ORARY":4960,"Ġ418":4961,"Ġ401":4962,"Ġ431":4963,"pycache":4964,"Ġnewheaders":4965,"TATI":4966,"TABLE":4967,"ĠHEADER":4968,"ĠMAN":4969,"ĠMODIFIED":4970,"ĠMorsel":4971,"SEE":4972,"ĠUserList":4973,"decl":4974,"ĠACCEP":4975,"Ġdocs":4976,"ATES":4977,"maxlength":4978,"ALRE":4979,"LOOP":4980,"ĠIMPLE":4981,"ĠLONG":4982,"RESET":4983,"RESER":4984,"LOCKED":4985,"Ġ510":4986,"Ġ504":4987,"Ġ501":4988,"Ġ511":4989,"ĠEXTE":4990,"METH":4991,"Ġ101":4992,"Ġ102":4993,"ĠPERMANENT":4994,"ĠTEAP":4995,"FORBID":4996,"Ġvariables":4997,"011":4998,"ĠREPORTED":4999,"ĠDEPEND":5000,"ĠDETECTED":5001,"Ġ402":5002,"Ġ406":5003,"Ġ407":5004,"Ġ408":5005,"Ġ409":5006,"ICIENT":5007,"ĠGATEWAY":5008,"ADY":5009,"THER":5010,"UPGRA":5011,"ĠUNAV":5012,"VARIA":5013,"FORMATION":5014,"ĠOTHER":5015,"Ġ202":5016,"Ġ203":5017,"Ġ205":5018,"Ġ206":5019,"Ġ207":5020,"Ġ208":5021,"Ġ303":5022,"Ġ305":5023,"Ġ306":5024,"Ġ307":5025,"Ġ308":5026,"PROTOCOL":5027,"PECTATION":5028,"FileField":5029,"UNPROCESS":5030,"UNAUTHORI":5031,"UNSUPPORTED":5032,"ĠALSO":5033,"ĠEmailField":5034,"Ġcookiedict":5035,"Ġ502":5036,"Ġ503":5037,"Ġ505":5038,"Ġ506":5039,"Ġ507":5040,"Ġ508":5041,"Ġ411":5042,"Ġ412":5043,"Ġ413":5044,"Ġ414":5045,"Ġ415":5046,"Ġ416":5047,"Ġ417":5048,"Ġ422":5049,"Ġ423":5050,"Ġ424":5051,"Ġ426":5052,"Ġ428":5053,"Ġ429":5054,"PROCESSING":5055,"ycleNode":5056,"Ġ'^[\\":5057,"ĠUSED":5058,"SERVICE":5059,"ĠINFORMATION":5060,"ĠBaseModelForm":5061,"Ġyesno":5062,"TOO":5063,"CONTINUE":5064,"-----":5065,"EXPECTATION":5066,"expire":5067,"WORK":5068,"FFICIENT":5069,"Ġlogger":5070,"ĠFIELDS":5071,"ĠREQUESTS":5072,"ĠPROXY":5073,"ĠPROTOCOL":5074,"MULTIPLE":5075,"AUTHORITATI":5076,"CONFLIC":5077,"Ġdivisibleby":5078,"ENCY":5079,"STATUS":5080,"ACCEPTED":5081,"OTIATES":5082,"maybe":5083,"CREATED":5084,"comma":5085,"DecimalField":5086,"ISFIABLE":5087,"AILABLE":5088,"GHEST":5089,"MENTED":5090,"NETWORK":5091,"PARTIAL":5092,"PAYMENT":5093,"SWITCH":5094,"ĠRANGE":5095,"Ġsalted":5096,"ĠNEGOTIATES":5097,"Ġ\"---------":5098,"TEMPORARY":5099,"ĠSATISFIABLE":5100,"ĠSERVER":5101,"ĠCHOICES":5102,"INSUFFICIENT":5103,"ĠMANY":5104,"ĠACCEPTABLE":5105,"ALREADY":5106,"ĠIMPLEMENTED":5107,"RESERVED":5108,"ĠEXTENDED":5109,"METHOD":5110,"ĠPERMANENTLY":5111,"ĠTEAPOT":5112,"FORBIDDEN":5113,"ĠDEPENDENCY":5114,"UPGRADE":5115,"ĠUNAVAILABLE":5116,"VARIANT":5117,"UNPROCESSABLE":5118,"UNAUTHORIZED":5119,"ĠPROTOCOLS":5120,"AUTHORITATIVE":5121,"CONFLICT":5122,"SWITCHING":5123,").',":5124,"SMTP":5125,"Ġsame":5126,"Ġcase":5127,"Ġdep":5128,"Ġdescript":5129,"Ġsubstituted":5130,"Ġgetvalue":5131,"Ġlock":5132,"ĠSMTP":5133,"Ġsignal":5134,"Ġprefixed":5135,"TIC":5136,"Ġextract":5137,"serialize":5138,"runner":5139,"CharField":5140,"Ġdescriptor":5141,"\"$":5142,"\"([":5143,"(^":5144,"*\"$":5145,"03":5146,"010":5147,":\\.":5148,"APP":5149,"FloatField":5150,"GenericIPAddressField":5151,"LP":5152,"NS":5153,"NullBoolean":5154,"PT":5155,"RS":5156,"Split":5157,"SlugField":5158,"TZ":5159,"[([":5160,"]-\\":5161,"^\"([":5162,"ither":5163,"nc":5164,"vcounter":5165,"|^\"([":5166,"}\"":5167,"}|[":5168,"Ġ64":5169,"ĠEntitiesForbidden":5170,"Ġser":5171,"temp":5172,"revcounter":5173,"Ġcustom":5174,"Ġreferences":5175,"setup":5176,"Ġevent":5177,"Ġeither":5178,"Ġ'+":5179,"Ġbin":5180,"Ġstrftime":5181,"Ġvarlist":5182,"IntegerField":5183,"Ġpad":5184,"ĠDNS":5185,"Expi":5186,"Ġendless":5187,"\\\\[\\":5188,"ĠBaseFormSet":5189,"compiled":5190,"Ġpks":5191,"prefixed":5192,"Ġtransaction":5193,"bose":5194,"ComboField":5195,"Ġstatement":5196,"ValueField":5197,"])*\"$":5198,"DateField":5199,"]+(\\.":5200,"TimeField":5201,"FilePathField":5202,"Ġwsgiref":5203,"atureExpi":5204,"HELP":5205,"URLField":5206,"[\\]-\\":5207,"Ġdisposition":5208,"mporary":5209,"-\\[\\]-\\":5210,"Ġmimetype":5211,"mentsBy":5212,"archive":5213,"ĠHttpRequest":5214,"multipartparser":5215,"ĠLoader":5216,"ĠSignatureExpi":5217,"RegexField":5218,"ĠORDER":5219,"EmailField":5220,"!#-\\[\\]-\\":5221,"247":5222,"]|\\\\[\\":5223,"ĠSuspiciousMultipart":5224,"public":5225,"]+)*":5226,"]+)\\]":5227,"TypedChoiceField":5228,"TypedMultipleChoiceField":5229,",}(?<!-))":5230,"MultiValueField":5231,"TagName":5232,"ImageField":5233,"ppCommand":5234,"microsecond":5235,"Ġcollections":5236,"ElementsBy":5237,"(^[-!#$%&'*+/=?^_`{}|~":5238,"037":5239,":\\.]+)\\]":5240,"NullBooleanField":5241,"SplitDateTimeField":5242,"|^\"([\\":5243,"]+(\\.[-!#$%&'*+/=?^_`{}|~":5244,"ĠSignatureExpired":5245,"ĠORDERING":5246,"ElementsByTagName":5247,":\\.]+)\\]$'":5248,"Many":5249,"du":5250,"Ġren":5251,"Ġrecipient":5252,"Ġnormpath":5253,"Ġplat":5254,"password":5255,"asvar":5256,"views":5257,"docs":5258,"Ġloaders":5259,"link":5260,"Ġplaces":5261,"$\",":5262,"'s":5263,")(\\.":5264,"//'":5265,"=(),":5266,"Attribute":5267,"ROM":5268,"_]+":5269,"aught":5270,"kd":5271,"vary":5272,"win":5273,"yph":5274,"},":5275,"related":5276,"Ġfour":5277,"leading":5278,"Ġdescrip":5279,"uncaught":5280,"Ġsuffix":5281,"Ġsubcommand":5282,"anges":5283,"Ġhap":5284,"Ġhyph":5285,"ĠDATE":5286,"ens":5287,"cluded":5288,"Order":5289,"createdir":5290,"Ġ'://'":5291,"Ġreading":5292,"Ġmodul":5293,"mtree":5294,"Ġexecute":5295,"Ġ'^%":5296,"ĠErrorDict":5297,"Ġformsets":5298,")){":5299,"ĠModelFormMetaclass":5300,"available":5301,"ĠJSONSerializer":5302,"Ġattachment":5303,"serializationError":5304,")(\\.(":5305,"Ġdescription":5306,"Ġhappen":5307,"Ġhyphens":5308,"'='":5309,"BASE":5310,"hex":5311,"sof":5312,"ule":5313,"require":5314,"ong":5315,"Ġreal":5316,"lest":5317,"Ġ\".\"":5318,"total":5319,"ckFileEx":5320,"Ġformating":5321,"Ġchanges":5322,"ĠCache":5323,"Ġenclo":5324,"ĠĠĠĠĠĠĠĠĠĠĠĠĠĠĠĠĠĠĠĠĠĠĠĠĠĠĠ":5325,"Ġrule":5326,"Ġops":5327,"LOAD":5328,"color":5329,"Ġsmallest":5330,"UPLOAD":5331,"registered":5332,"backends":5333,"Ġpotfile":5334,"conditions":5335,"Ġdeps":5336,"soft":5337,"Ġenclosing":5338,"Ġrules":5339,"43":5340,"443":5341,"80":5342,"Fu":5343,"LS":5344,"NING":5345,"SS":5346,"Se":5347,"Simple":5348,"TLS":5349,"VID":5350,"bp":5351,"correct":5352,"fset":5353,"found":5354,"hlo":5355,"mc":5356,"oformat":5357,"pped":5358,"same":5359,"Ġarchive":5360,"Ġss":5361,"rest":5362,"else":5363,"Ġreference":5364,"Ġ'.%":5365,"Ġdon":5366,"Ġsubdir":5367,"Ġsubwidget":5368,"Ġdic":5369,"pagin":5370,"Ġnames":5371,"Ġgetlist":5372,"ĠgetIn":5373,"blem":5374,"Ġhfile":5375,"ditional":5376,"Ġbasedir":5377,"come":5378,"libmc":5379,"mmy":5380,"errorlist":5381,"Ġsecre":5382,"Ġnewheader":5383,"Ġdownload":5384,"Ġurls":5385,"Ġcoded":5386,"ĠBaseMem":5387,"Ġbecome":5388,"Ġinputs":5389,"Entity":5390,"clHandler":5391,"decorators":5392,"Ġpofile":5393,"tureHandler":5394,"matches":5395,"ĠPa":5396,"Ġparentmod":5397,"NOTP":5398,"curity":5399,"Ġgroupby":5400,"encodes":5401,"DeclHandler":5402,"RITIC":5403,"ROVID":5404,"seconds":5405,"THON":5406,"Ġpylibmc":5407,"Ġfilesizeformat":5408,"ĠStopFu":5409,"://'":5410,"PORT":5411,"nonfield":5412,"nerText":5413,"Ġproducer":5414,"flush":5415,"Ġcombined":5416,"Ġadditional":5417,"mtimes":5418,"Ġoverlapped":5419,"#-#-":5420,"HttpRequest":5421,"private":5422,"ĠLoaderOrigin":5423,"ĠSuspiciousMultipartForm":5424,"SimpleCookie":5425,"correctly":5426,"samefile":5427,"paginator":5428,"ĠgetInnerText":5429,"Ġsecret":5430,"ĠBaseMemcachedCache":5431,"tureHandlers":5432,"NOTPROVID":5433,"RITICAL":5434,"ĠStopFutureHandlers":5435,"NOTPROVIDED":5436,"FI":5437,"PA":5438,"eed":5439,"ose":5440,"tform":5441,"uth":5442,"work":5443,"dev":5444,"Ġrefto":5445,"indent":5446,"Ġeve":5447,"Ġsubmit":5448,"Ġmerge":5449,"Ġintrospection":5450,"atable":5451,"platform":5452,"Ġstar":5453,"Ġuploaded":5454,"ĠSystem":5455,"Ġconverter":5456,"Ġdatastructures":5457,"ĠAppCommand":5458,"Ġround":5459,"Ġoccurred":5460,"hint":5461,"introspection":5462,"ĠLockFileEx":5463,"migratable":5464,"hexdigest":5465,"workdir":5466,"\"^":5467,"'ve":5468,"'\\\\":5469,")\\.":5470,"-]*":5471,"/?":5472,"32":5473,"61":5474,"?[":5475,"?)|":5476,"Equal":5477,"IST":5478,"Ren":5479,"RUN":5480,"\\-]*":5481,"ample":5482,"boolean":5483,"bly":5484,"cord":5485,"fcgi":5486,"ring":5487,"sad":5488,"|'":5489,"Ġsplitext":5490,"ell":5491,"Ġdetected":5492,"ingMix":5493,"unction":5494,"Ġincr":5495,"atty":5496,"odetect":5497,"utodetect":5498,"conn":5499,"cept":5500,"cause":5501,"ĠFast":5502,"anduser":5503,"Ġ32":5504,"timestamp":5505,"Ġcaused":5506,"ĠCritical":5507,"endif":5508,"ĠBound":5509,"ĠInfo":5510,"bably":5511,"ĠMem":5512,"Ġpretty":5513,"Ġopt":5514,"ĠBaseForm":5515,"LOC":5516,"REDIRECT":5517,"Ġonce":5518,"ĠUnable":5519,"'\".":5520,"Ġklass":5521,"TemplateResponse":5522,"Ġcleanup":5523,"(?::\\":5524,"\\.\\-]*":5525,"ĠTextarea":5526,"ĠSimpleTemplateResponse":5527,"Ġreadlines":5528,"Ġpermission":5529,"ĠIPAddressField":5530,"ĠRegexField":5531,"Ġspecified":5532,"couldn":5533,"URLCONF":5534,"FIELDS":5535,"pos":5536,"ĠFileBase":5537,"which":5538,"Ġ'^/'":5539,"ĠPYTHON":5540,"runfastcgi":5541,"Ġpluralize":5542,"ftps":5543,"WSGIRequestHandler":5544,"forever":5545,"}\\.?|[":5546,"EXIST":5547,"threads":5548,"PREFI":5549,"'^/'":5550,"ĠLocaleRegexURLResolver":5551,",}(?<!-)\\.":5552,"?|[/?":5553,":]+\\]":5554,"alternatives":5555,"Ġmodulus":5556,"software":5557,"Ġdictitem":5558,"EqualNode":5559,"saddi":5560,"ingMixIn":5561,"utodetector":5562,"ĠFastCGI":5563,"ĠBoundField":5564,"\\.\\-]*)":5565,"ĠPYTHONPATH":5566,"PREFIX":5567,",}(?<!-)\\.?)|":5568,"?|[/?]\\":5569,"&',":5570,")\".":5571,"/',":5572,"ant":5573,"ical":5574,"klen":5575,"olated":5576,"Ġfs":5577,"decompress":5578,"seek":5579,"Ġtwi":5580,"Ġ'&'":5581,"Ġ'&',":5582,"trib":5583,"Ġbring":5584,"contrib":5585,"ĠDeserializationError":5586,"datastructures":5587,"outbox":5588,"ĠĠĠĠĠĠĠĠĠĠĠĠĠĠĠĠĠĠĠĠĠĠĠĠĠĠĠĠĠĠ":5589,"Ġrmtree":5590,"djangoproject":5591,"atibility":5592,"mited":5593,"Ġcompatibility":5594,"Ġsupports":5595,"virtual":5596,"utcnow":5597,"Ġbackends":5598,"Ġutcnow":5599,"Ġ']'":5600,"Ġbinascii":5601,"Ġrendered":5602,"Ġstarting":5603,"Ġtwice":5604,"(:\\":5605,"-]+":5606,".-]+":5607,"35":5608,"304":5609,"?://":5610,"Can":5611,"CCESS":5612,"Do":5613,"FC":5614,"MOD":5615,"MIME":5616,"NB":5617,"Of":5618,"Options":5619,"Run":5620,"SH":5621,"TING":5622,"ULE":5623,"Used":5624,"\\])":5625,"event":5626,"ging":5627,"iteral":5628,"jav":5629,"nical":5630,"siz":5631,"tar":5632,"ud":5633,"uble":5634,"threa":5635,"dest":5636,"Ġcmd":5637,"installed":5638,"Ġdeader":5639,"Ġeof":5640,"Ġisdir":5641,"ceback":5642,"errno":5643,"Ġinit":5644,"Ġincluded":5645,"roy":5646,"Ġnotifier":5647,"Ġclassmethod":5648,"getlist":5649,"control":5650,"ndToken":5651,"chnical":5652,"ratio":5653,"urlencode":5654,"ĠFROM":5655,"timedelta":5656,"ARNING":5657,"ndering":5658,"ĠCRITICAL":5659,"ĠMiddleware":5660,"Rendering":5661,"SEC":5662,"activated":5663,"accept":5664,"LETION":5665,"Ġprefork":5666,"Ġdouble":5667,"Ġtimedelta":5668,"redund":5669,"crete":5670,"reating":5671,"maxRequest":5672,"maxCh":5673,"maxThread":5674,"NotUsed":5675,"1035":5676,"ĠImplement":5677,"days":5678,"denci":5679,"ĠEndToken":5680,"DECODE":5681,"subtype":5682,"subdir":5683,"pendenci":5684,"Ġ1034":5685,"ildren":5686,"Ġpreviously":5687,"ĠMultiWidget":5688,"ĠWARNING":5689,"encoded":5690,"mios":5691,"ĠDELETION":5692,"Ġtest":5693,"ĠRFC":5694,"ĠOVERLAPPED":5695,"ĠALL":5696,"HERE":5697,"cript":5698,"Ġdays":5699,"ĠINFO":5700,"rgeDict":5701,"Ġactivated":5702,"Ġaccord":5703,"Ġoperator":5704,"Ġpossible":5705,"ToMany":5706,"Ġlogging":5707,"SUCCESS":5708,":]+\\])":5709,"|\\[[":5710,"Ġtermios":5711,"microseconds":5712,"kdtemp":5713,"Ġssl":5714,"unctionType":5715,".-]+|\\[[":5716,"?://\"":5717,"MODULE":5718,"TINGS":5719,"sizes":5720,"threaded":5721,"destroy":5722,"urlencoded":5723,"ĠMiddlewareNotUsed":5724,"redundant":5725,"maxRequests":5726,"maxChildren":5727,"maxThreads":5728,"ĠImplementation":5729,"pendencies":5730,"Ġaccording":5731,":]+\\])(:\\":5732,"ALE":5733,"flo":5734,"rup":5735,"today":5736,"Ġsample":5737,"Ġtoday":5738,"level":5739,"Ġdklen":5740,"Ġunlock":5741,"extract":5742,"ĠSe":5743,"ĠDeserializer":5744,"ĠMany":5745,"lockFileEx":5746,"usable":5747,"Ġknown":5748,"Ġdomains":5749,"Ġmakedirs":5750,"Ġ'\\\\',":5751,"Ġfilenames":5752,"Ġnormcase":5753,"Ġrunning":5754,"Ġ'\"%":5755,"ĠThat":5756,"Ġ']',":5757,"Ġ'?'":5758,"Ġrecipients":5759,"07":5760,"38":5761,";.":5762,"ACK":5763,"BACK":5764,"CycleNode":5765,"DS":5766,"Den":5767,"FRA":5768,"GMENT":5769,"HANDLE":5770,"OENT":5771,"Wrap":5772,"adecimal":5773,"custom":5774,"hr":5775,"ifunc":5776,"ow":5777,"tc":5778,"wis":5779,"watch":5780,"}://":5781,"}>{":5782,"Ġsav":5783,"elow":5784,"dependencies":5785,"Ġctypes":5786,"Ġtail":5787,"last":5788,"Ġnargs":5789,"Ġnud":5790,"ermission":5791,"Ġbelow":5792,"Ġpas":5793,"Ġpage":5794,"textarea":5795,"ĠName":5796,"strftime":5797,"exhaust":5798,"extension":5799,"Ġcahr":5800,"Ġwhen":5801,"ENOENT":5802,"Ġotherwis":5803,"ĠDTDForbidden":5804,"checked":5805,"ĠSlugField":5806,"Ġgive":5807,"Ġjython":5808,"SECON":5809,"SECRE":5810,"accessor":5811,"nected":5812,"NotFound":5813,"RET":5814,"Ġdoesn":5815,"Ġpopen":5816,"ĠEvent":5817,"metaclass":5818,"ĠPermission":5819,"namedCycleNode":5820,"Ġcommon":5821,"BaseCookie":5822,"wrapper":5823,"HTTPS":5824,"DATETIME":5825,"ResolverMatch":5826,"ĠComboField":5827,"ĠFilePathField":5828,"Ġmimetypes":5829,"renderer":5830,"formsets":5831,"Ġdirnames":5832,"ĠThis":5833,"licting":5834,"Ġhexadecimal":5835,"Ġshell":5836,"ĠSECRET":5837,"tually":5838,"UploadHandler":5839,"Mixin":5840,"execute":5841,"Ġ'---'":5842,"Ġ'---'.":5843,"Ġinlineformset":5844,"Ġanswer":5845,"Ġ1638":5846,"Ġ'+'":5847,"LOCALE":5848,"SECURE":5849,"073":5850,"BACKEND":5851,"Denied":5852,"FRAGMENT":5853,"HANDLERS":5854,"Wrapper":5855,"}://{":5856,"Ġsaving":5857,"Ġpassed":5858,"Ġgiven":5859,"SECONDS":5860,"SECRET":5861,"ĠEventHandler":5862,"ĠPermissionDenied":5863,"namedCycleNodes":5864,"Ġ16384":5865,"'(\\":5866,")>\"":5867,"/#":5868,"dCache":5869,"gate":5870,"lru":5871,"wb":5872,"Ġ&":5873,"requires":5874,"ells":5875,"Ġforeign":5876,"Ġcmp":5877,"stat":5878,"Ġ'(\\":5879,"etch":5880,"Ġextras":5881,"Ġproblem":5882,"Ġprobably":5883,"parate":5884,"ĠBlock":5885,"ĠMIDDLEWARE":5886,"dates":5887,"negate":5888,"Ġdates":5889,"maxsize":5890,"ALLOWED":5891,"Ġbecause":5892,"ĠUnlockFileEx":5893,"Ġxrange":5894,"readline":5895,"Ġserializers":5896,"?)$'":5897,"?)$',":5898,"ĠTypedChoiceField":5899,"ĠFileBasedCache":5900,"(%":5901,"={}":5902,"Creating":5903,"Don":5904,"Escape":5905,"IPE":5906,"Last":5907,"LICATION":5908,"LONG":5909,"LHttpRequest":5910,"MLHttpRequest":5911,"OFF":5912,"XMLHttpRequest":5913,"[_":5914,"aj":5915,"ds":5916,"ea":5917,"eve":5918,"gistry":5919,"ickle":5920,"ieve":5921,"nation":5922,"ock":5923,"oper":5924,"pot":5925,"pires":5926,"sh":5927,"sv":5928,"sy":5929,"stion":5930,"sNode":5931,"sole":5932,"ummy":5933,"ĠOper":5934,"Ġstu":5935,"Ġscript":5936,"Ġimplement":5937,"retr":5938,"Ġreport":5939,"Ġredu":5940,"ink":5941,"ination":5942,"arArchive":5943,"Ġdevel":5944,"Ġisfile":5945,"ingClass":5946,"pear":5947,"stination":5948,"ctype":5949,"ĠTarArchive":5950,"illow":5951,"Ġmtime":5952,"Ġmali":5953,"Ġmsv":5954,"Ġexclus":5955,"Ġextension":5956,"cast":5957,"Ġ_,":5958,"strip":5959,"Ġhmac":5960,"Ġappear":5961,"Ġ11":5962,"dint":5963,"buf":5964,"Ġ'%%":5965,"pending":5966,"permission":5967,"Ġbyref":5968,"iry":5969,"ExternalReferenceForbidden":5970,"Expires":5971,"ĠSkip":5972,"ĠCookie":5973,"ĠCom":5974,"entities":5975,"Ġsecurity":5976,"Ġ49":5977,"opt":5978,"ĠHANDLE":5979,"Restart":5980,"Registry":5981,"SELE":5982,"LETE":5983,"ĠULONG":5984,"Ġurlretr":5985,"NotRen":5986,"tendsNode":5987,"ĠLiteral":5988,"Ġexpiry":5989,"ĠSafeMIME":5990,"DELETE":5991,"ĠPIPE":5992,"ĠPillow":5993,"baseCache":5994,"home":5995,"RLock":5996,"angedNode":5997,"Defin":5998,"ETag":5999,"signature":6000,"Lock":6001,"Ġtemporary":6002,"ĠURLField":6003,"CookieError":6004,"deredError":6005,"side":6006,"writeable":6007,"ODING":6008,"Ġtablename":6009,"ĠStopUpload":6010,"offset":6011,"logger":6012,"Ġactiv":6013,"ĠIfParser":6014,"ĠIfCh":6015,"Ġbuffer":6016,"ĠMediaDefin":6017,"Ġshouldn":6018,"ControlNode":6019,"Ġreceivers":6020,"ĠAutoEscape":6021,"Ġcombination":6022,"MultiPartParser":6023,"WITH":6024,"ENCODING":6025,"ImageFile":6026,"crt":6027,"ĠMigrationLoader":6028,"attachment":6029,"ĠContentNotRen":6030,"APPLICATION":6031,"PTR":6032,"Ġfourth":6033,"EntityDeclHandler":6034,"ĠSystemRestart":6035,"java":6036,"Ġinitlist":6037,"ĠManyToMany":6038,"OFFSET":6039,"ajax":6040,"opers":6041,"stioner":6042,"ĠOperator":6043,"Ġstuck":6044,"Ġreduce":6045,"Ġdevelopers":6046,"Ġmalicious":6047,"Ġmsvcrt":6048,"Ġexclusive":6049,"ĠSkipFile":6050,"ĠCookieError":6051,"ĠCommentNode":6052,"SELECT":6053,"Ġurlretrieve":6054,"ĠPillowImageFile":6055,"Ġactivity":6056,"ĠIfChangedNode":6057,"ĠMediaDefiningClass":6058,"ĠAutoEscapeControlNode":6059,"ĠContentNotRenderedError":6060,";\"":6061,"Did":6062,"IGHEST":6063,"normpath":6064,"rerror":6065,"Ġfun":6066,"alk":6067,"Ġwere":6068,"Ġfunctional":6069,"casca":6070,"Ġ13":6071,"Ġordered":6072,"ĠSI":6073,"Ġprog":6074,"functional":6075,"ĠHIGHEST":6076,"mlink":6077,"using":6078,"lying":6079,"sure":6080,"Ġ59":6081,"Ġ\"\\\\\"":6082,"Ġstored":6083,"Ġ'\"%(":6084,"Ġalternative":6085,"ĠMergeDict":6086,"HIGHEST":6087,"sequences":6088,"ĠTypedMultipleChoiceField":6089,",]+$'":6090,",]+$',":6091,"MinValueValidator":6092,"MinLengthValidator":6093,"MaxValueValidator":6094,"MaxLengthValidator":6095,"Ġ\"---------\"":6096,"Ġplatform":6097,"buffer":6098,"Ġfuntion":6099,"cascade":6100,"\"(^[-!#$%&'*+/=?^_`{}|~":6101,"'(?:[":6102,"'|^\"([\\":6103,".!":6104,"?.!":6105,"CL":6106,"CCache":6107,"EMPTY":6108,"Lib":6109,"ManagementForm":6110,"MCCache":6111,"Need":6112,"Page":6113,"Pickle":6114,"Rel":6115,"Using":6116,"]'":6117,"fre":6118,"fam":6119,"gger":6120,"height":6121,"ith":6122,"mcache":6123,"sel":6124,"splitext":6125,"writer":6126,"yLib":6127,"}.":6128,"Ġqual":6129,"Ġauth":6130,"Ġsyntax":6131,"Ġful":6132,"Ġfetch":6133,"Ġrest":6134,"Ġwriter":6135,"Ġ'(?:[":6136,"mpere":6137,"Ġinside":6138,"Ġbcc":6139,"ĠNan":6140,"ily":6141,"Ġma":6142,"getElementsByTagName":6143,"Ġ\"(^[-!#$%&'*+/=?^_`{}|~":6144,"Ġ\"|^\"([\\":6145,"verbose":6146,"Ġunifunc":6147,"ĠgetElementsByTagName":6148,"Ġled":6149,"ignored":6150,"ixpath":6151,"Ġnever":6152,"Ġlogi":6153,"quenc":6154,"ĠTemplateTag":6155,"Exit":6156,"Expat":6157,"ĠCsrf":6158,"INET":6159,"'.'":6160,"Ġgo":6161,"Ġsee":6162,"Ġdictvalue":6163,"fixes":6164,"Ġformatting":6165,"Ġurlsafe":6166,"Ġcodecs":6167,"ĠBaseLoader":6168,"ĠIE":6169,"djangojs":6170,"Ġbeing":6171,"Ġbeha":6172,"ĠRegroup":6173,"download":6174,"Ġ'\\[([":6175,"Ġverbose":6176,"Ġpkg":6177,"raph":6178,"Ġseparators":6179,"urlsafe":6180,"ĠPIL":6181,"ĠPyLib":6182,"overwrite":6183,"Ġposixpath":6184,"Ġtampere":6185,"BaseConverter":6186,"Ġ':?.!":6187,"signal":6188,"Logger":6189,"Unknown":6190,"Ġconfig":6191,"parentloop":6192,"Ġlbp":6193,"Ġsupported":6194,"FileUploadHandler":6195,"Ġpythonrc":6196,"phone":6197,"phans":6198,"ĠFileInput":6199,"ĠFilePro":6200,"ĠFileWrapper":6201,"converter":6202,"'\\[([":6203,"Ġ79":6204,"GNING":6205,"xyMixin":6206,"TYPES":6207,"Ġerr":6208,"Ġsymb":6209,"ĠImageField":6210,"ĠImageFile":6211,"TokenNode":6212,"])*\"$)\"":6213,"])*\"$)'":6214,"]+)*$\"":6215,"]+)*$\",":6216,",}(?<!-))$'":6217,",}(?<!-))$',":6218,"ĠCacheClass":6219,"permissions":6220,"frequenc":6221,"family":6222,"selected":6223,"Ġqualified":6224,"Ġfully":6225,"ĠTemplateTagNode":6226,"ExpatParser":6227,"ĠCsrfTokenNode":6228,"ĠRegroupNode":6229,"ĠPyLibMCCache":6230,"Ġtampered":6231,"ĠFileProxyMixin":6232,"frequency":6233,"?\"":6234,"Dis":6235,"cel":6236,"uc":6237,"}\"'":6238,"})\"":6239,"}$'":6240,"}$',":6241,"})\".":6242,"Ġrequire":6243,"Ġwalk":6244,"Ġinform":6245,"Ġconcrete":6246,"Ġmix":6247,"Ġsets":6248,"Ġ\"-":6249,"Ġleave":6250,"Ġvars":6251,"serve":6252,"Ġchange":6253,"Ġtagtype":6254,"errorhandler":6255,"Ġalters":6256,"loads":6257,"gsl":6258,"groupdict":6259,"Ġgroupdict":6260,"Ġserializ":6261,"ĠFILES":6262,"Ġ'^(":6263,"Ġ'^[-":6264,"'^(":6265,"'^[-":6266,"Ġ'/',":6267,"attachments":6268,"_]+$'":6269,"_]+$',":6270,"ĠBlockNode":6271,"Ġsymbol":6272,"Ġinformation":6273,"*'":6274,"500":6275,">\".":6276,"An":6277,"App":6278,"CRI":6279,"Client":6280,"DTDForbidden":6281,"GER":6282,"JANG":6283,"OOL":6284,"OVERLAPPED":6285,"POVERLAPPED":6286,"SCRI":6287,"UDE":6288,"Your":6289,"ZE":6290,"]\"":6291,"bin":6292,"cular":6293,"drive":6294,"ess":6295,"ehlo":6296,"fs":6297,"fhandle":6298,"gro":6299,"long":6300,"mment":6301,"migration":6302,"pto":6303,"patch":6304,"pgettext":6305,"random":6306,"sue":6307,"sError":6308,"uper":6309,"utually":6310,"vid":6311,"void":6312,"wsError":6313,"Ġod":6314,"Ġautodetector":6315,"Ġsor":6316,"temporary":6317,"regroup":6318,"elif":6319,"Ġfext":6320,"orNode":6321,"Ġcr":6322,"Ġcir":6323,"ĠcPickle":6324,"Ġrestart":6325,"Ġrelated":6326,"Ġrefs":6327,"Ġthefile":6328,"indo":6329,"Ġwm":6330,"Ġwind":6331,"leep":6332,"artif":6333,"uni":6334,"Ġea":6335,"Ġehlo":6336,"Ġisoformat":6337,"Ġisatty":6338,"Ġissue":6339,"Ġnm":6340,"Ġ'.__":6341,"Ġour":6342,"ulong":6343,"terrup":6344,"Ġbot":6345,"Ġmemcache":6346,"Ġmutually":6347,"tained":6348,"utor":6349,"Ġ\"=\"":6350,"versing":6351,"pacel":6352,"Ġunix":6353,"chmod":6354,"ural":6355,"Ġratio":6356,"ĠFirst":6357,"ĠForNode":6358,"Ġhlen":6359,"Ġcover":6360,"Ġcomple":6361,"Ġcomment":6362,"tom":6363,"isible":6364,"isoformat":6365,"Ġdecr":6366,"Ġ'%'":6367,"timeWarning":6368,"Internal":6369,"Interrup":6370,"Ġloaded":6371,"queue":6372,"Ġstrerror":6373,"Ġthose":6374,"ĠSET":6375,"ĠSsi":6376,"Ġprovid":6377,"ĠClient":6378,"ĠCycleNode":6379,"attrib":6380,"Ġfileno":6381,"INE":6382,"INOT":6383,"INCL":6384,"STAL":6385,"previous":6386,"Ġsent":6387,"ĠBOOL":6388,"pyc":6389,"pyo":6390,"rypto":6391,"Reversing":6392,"LED":6393,"ATOM":6394,"Ġ--":6395,"DatabaseCache":6396,"fileno":6397,"kupError":6398,"0000":6399,"ĠBaseDatabaseCache":6400,"Ġvisible":6401,"ĠLPOVERLAPPED":6402,"IFY":6403,"Ġpopulate":6404,"ardInterrup":6405,"ĠTokenBase":6406,"Ġidstring":6407,"Ġcolspan":6408,"urlpatterns":6409,"Questioner":6410,"ĠKeybo":6411,"Ġminimal":6412,"That":6413,"Ġhttps":6414,"callbacks":6415,"ĠWindo":6416,"oryFileUploadHandler":6417,"Destination":6418,"()!":6419,"hostname":6420,"plural":6421,"MAIN":6422,"ĠFieldError":6423,"Ġ/><":6424,"csrfmiddleware":6425,"ĠStruc":6426,"SETTINGS":6427,"='{":6428,"USER":6429,"REQUESTS":6430,"=\"%":6431,"Ġ'^([":6432,"NAGER":6433,"ĠCheckRegistry":6434,"ĠLookupError":6435,"Ġalternatives":6436,"RegexURLResolver":6437,"ĠIfNode":6438,"widthratio":6439,"enerator":6440,"ENGINE":6441,"IfNode":6442,"IfEqualNode":6443,"Ġabspathu":6444,"serialization":6445,"osfhandle":6446,"sswordInput":6447,"Ġdotted":6448,"ROOTS":6449,"Ġpairs":6450,"MINS":6451,"SIZE":6452,"SMTPException":6453,"ĠSMTPException":6454,"APPS":6455,"ncdb":6456,"}\">{":6457,"SSWORD":6458,"ĠParent":6459,"ĠPasswordInput":6460,"PASSWORD":6461,"Ġevens":6462,"ĠMemoryFileUploadHandler":6463,"OfNode":6464,"events":6465,"dinto":6466,"ĠManyToManyField":6467,"Didn":6468,"Ġlogical":6469,"Ġconfigure":6470,"JANGO":6471,"SCRIPT":6472,"grouper":6473,"Ġodds":6474,"Ġsortable":6475,"Ġcircular":6476,"Ġwindll":6477,"Ġbottom":6478,"paceless":6479,"Ġunixfrom":6480,"ĠFirstOfNode":6481,"ĠSsiNode":6482,"Ġproviding":6483,"INOTIFY":6484,"INCLUDE":6485,"STALLED":6486,"ATOMIC":6487,"Ġpopulated":6488,"ardInterrupt":6489,"ĠKeyboardInterrupt":6490,"ĠWindowsError":6491,"csrfmiddlewaretoken":6492,"ĠStructure":6493,"NAGERS":6494,"'\\\\'":6495,"/\",":6496,"/?|[/?]\\":6497,"?)'":6498,"EEXIST":6499,"[?[":6500,"dump":6501,"ditable":6502,"gain":6503,"utime":6504,"}',":6505,"}|\\[":6506,"}|'":6507,"ĠZ":6508,"ĠROOT":6509,"Ġato":6510,"Ġagain":6511,"Ġwork":6512,"Ġtree":6513,"Ġeditable":6514,"Ġisabs":6515,"Ġinter":6516,"Ġboo":6517,"limited":6518,"Ġ\"(?:[":6519,"Ġ\"?|[/?]\\":6520,"Ġlistdir":6521,"isolated":6522,"Ġderived":6523,"Ġoutbox":6524,"plied":6525,"ĠĠĠĠĠĠĠĠĠĠĠĠĠĠĠĠĠĠĠĠĠĠĠĠĠĠĠĠĠĠĠĠĠĠĠĠĠ":6526,"filepath":6527,"Ġexpanduser":6528,"ĠEEXIST":6529,"readingMixIn":6530,"(?:(?:[":6531,"(?:/\",":6532,"ĠPro":6533,"Ġrounded":6534,"+)$'":6535,"+)$\"":6536,"MANAGERS":6537,"ADMINS":6538,"Ġ'-',":6539,"Ġiterations":6540,"expanduser":6541,"Ġ'\"',":6542,"'\\[?[":6543,"ĠINSTALLED":6544,"ĠThreadingMixIn":6545,"://(?:(?:[":6546,"'^(?:[":6547,"+)?'":6548,"+)?(?::\\":6549,"+)?(?:/\",":6550,"])?\\.)+\",":6551,"serializable":6552,"?)(?::\\":6553,"FILES":6554,"Ġadded":6555,"Ġsymlink":6556,"STATIC":6557,"cyclevars":6558,"'(?:(?:[":6559,"'(?::\\":6560,"'(?:/?|[/?]\\":6561,"Ġ\"^(?:[":6562,"ThreadingMixIn":6563,"Ġ'?',":6564,"Ġserve":6565,"Ġeven":6566,"'\\\\\"'":6567,"'\\\\\\\\'":6568,":]+\\]?)'":6569,":]+\\]?)(?::\\":6570,"\\.\\-]*)://'":6571,"\\.\\-]*)://(?:(?:[":6572,",}(?<!-)\\.?)|'":6573,",}(?<!-)\\.?)|\\":6574,"Ġserializable":6575,"Ġeather":6576,"}|\\[?[":6577,"Ġatomic":6578,"Ġboolen":6579,"##":6580,"'re":6581,"*,\\":6582,"05":6583,":'":6584,"Cre":6585,"Clean":6586,"DIA":6587,"Ent":6588,"Frame":6589,"FunctionType":6590,"HN":6591,"HJKLM":6592,"LC":6593,"Morsel":6594,"NER":6595,"NPQRSTUVWXYZ":6596,"Print":6597,"Rati":6598,"Tells":6599,"UHN":6600,"WHERE":6601,"WLock":6602,"XFrame":6603,"aceback":6604,"cing":6605,"cli":6606,"fm":6607,"fragment":6608,"hn":6609,"iden":6610,"imited":6611,"jack":6612,"mn":6613,"mime":6614,"mcol":6615,"mkdtemp":6616,"nied":6617,"omm":6618,"oNode":6619,"rt":6620,"tname":6621,"uhn":6622,"warning":6623,"ying":6624,"}=\"{":6625,"Ġunc":6626,"Ġsha":6627,"technical":6628,"removed":6629,"Ġfea":6630,"ally":6631,"tice":6632,"tins":6633,"Ġrepla":6634,"Ġwon":6635,"stalling":6636,"under":6637,"Ġdenied":6638,"Ġisolated":6639,"ced":6640,"Ġ'$'":6641,"Ġdry":6642,"Ġinfix":6643,"Ġinotify":6644,"Ġplease":6645,"Ġsubtype":6646,"ines":6647,"Ġmani":6648,"Ġmkdtemp":6649,"Ġexternal":6650,"getattr":6651,"getpid":6652,"getAttribute":6653,"Ġtraceback":6654,"connected":6655,"Ġ23":6656,"Ġupath":6657,"Ġusu":6658,"fest":6659,"Ġ%}":6660,"Ġgetpid":6661,"ĠgetAttribute":6662,"ĠFunctionType":6663,"Ġhte":6664,"Ġcoerce":6665,"Ġintrodu":6666,"toequal":6667,"Ġlearn":6668,"ckjack":6669,"istent":6670,"isatty":6671,"Ġ12":6672,"dirname":6673,"Ġbasedirs":6674,"Ġ31":6675,"perfork":6676,"quit":6677,"quert":6678,"TEST":6679,"ĠTemplateIf":6680,"Ġprotected":6681,"prefork":6682,"pecting":6683,"Ġseqs":6684,"Ġensure":6685,"viors":6686,"Ġ{%":6687,"ĠAll":6688,"sources":6689,"never":6690,"OKUP":6691,"Ġoptins":6692,"LOOKUP":6693,"Ġdelimited":6694,"ĠLUHN":6695,"Ġonerror":6696,"Ġattname":6697,"defines":6698,"traceback":6699,"Ġcopystat":6700,"uldn":6701,"MESS":6702,"MEDIA":6703,"ĠPage":6704,"ĠPopen":6705,"ĠPlease":6706,"Ġwhite":6707,"ĠWidth":6708,"ĠWHERE":6709,"Ġfilesystem":6710,"ValueNotFound":6711,"column":6712,".%'.\"":6713,".%'.\",":6714,"Ġconflicting":6715,"Ġtechnical":6716,"ĠRWLock":6717,"Ġmodified":6718,"transaction":6719,"Ġskipped":6720,"Ġlstrip":6721,"ĠFilterNode":6722,"Ġ'-_'":6723,"ServerDis":6724,"Ġexecutor":6725,"ĠCouldn":6726,"UTF":6727,"Ġrunner":6728,"VERSION":6729,"final":6730,"Ġ\",\"":6731,"ĠExtendsNode":6732,"ODD":6733,"Ġmultiplied":6734,"ModelForm":6735,"ĠModelFormOptions":6736,"abcdefghijkmn":6737,"BadSignature":6738,"ĠIfEqualNode":6739,"AGES":6740,"ABCDEFGHJKLM":6741,"Notice":6742,"DIR":6743,"DIRS":6744,"Permission":6745,"Check":6746,"ABCDEFGHIJKLMNOPQRSTUVWXYZabcdefghijklmnopqrstuvwxyz":6747,"markup":6748,"wnloading":6749,"Uploaded":6750,"+)?$\"":6751,"+)?$\",":6752,"Ġattachments":6753,"comment":6754,"ACCEPT":6755,"IMODE":6756,"ĠPythonSerializer":6757,"Ġmultipartparser":6758,"Ġoverlaying":6759,"Ġ\"^([":6760,"Ġtermcol":6761,"Ġ\"---------\",":6762,"Ġlocks":6763,"Ġhappened":6764,"\"^([":6765,"RUNNER":6766,"ĠMemcachedCache":6767,"Downloading":6768,"OptionsMiddleware":6769,"Running":6770,"syncdb":6771,"054":6772,"Cleaning":6773,"Entry":6774,"NPQRSTUVWXYZabcdefghijkmn":6775,"Prints":6776,"RatioNode":6777,"XFrameOptionsMiddleware":6778,"clickjack":6779,"fmts":6780,"identifier":6781,"ommon":6782,"Ġuncommon":6783,"Ġfeatures":6784,"Ġreplacing":6785,"underlying":6786,"Ġmanifest":6787,"Ġusually":6788,"Ġintroduced":6789,"toequals":6790,"quertset":6791,"ĠTemplateIfParser":6792,"MESSAGES":6793,"ĠWidthRatioNode":6794,"ValueNotFoundException":6795,"ServerDisconnected":6796,"ABCDEFGHJKLMNPQRSTUVWXYZabcdefghijkmn":6797,"UploadedFile":6798,"Ġtermcolors":6799,"clickjacking":6800,"ABCDEFGHJKLMNPQRSTUVWXYZabcdefghijkmnpqrstuvwxyz":6801,"'--":6802,"/%":6803,"PER":6804,"auth":6805,"adinto":6806,"bid":6807,"ks":6808,"multi":6809,"multiple":6810,"netloc":6811,"oks":6812,"sha":6813,"ving":6814,"Ġlike":6815,"ĠENOENT":6816,"release":6817,"Ġfeed":6818,"ories":6819,"deconstruct":6820,"Ġcar":6821,"Ġreadinto":6822,"Ġargv":6823,"arli":6824,"Ġearli":6825,"Ġouter":6826,"__'.":6827,"Ġmk":6828,"argv":6829,"Ġdiction":6830,"Ġgetc":6831,"Ġleading":6832,"Ġ17":6833,"Ġ18":6834,"Ġorphans":6835,"riage":6836,"Ġbased":6837,"Ġlooks":6838,"queries":6839,"admin":6840,"irtual":6841,"ĠDoesNotExist":6842,"parameter":6843,"Ġvirtual":6844,"loadname":6845,"dirpath":6846,"Ġsoft":6847,"fromtimestamp":6848,"Ġwritelines":6849,"Deserializer":6850,"ĠGenerator":6851,"Ġconfigured":6852,"ĠModelField":6853,"Ġloadname":6854,"Ġdeconstruct":6855,"Ġservers":6856,"makedirs":6857,"Ġ'--',":6858,"Ġdirectories":6859,"LANGUAGES":6860,"Ġ'/'.":6861,"Ġ'//',":6862,"Ġ'//%":6863,"Ġfnmatch":6864,"alternative":6865,"Ġtests":6866,"ĠSee":6867,"ĠSeparate":6868,"Ġbehaving":6869,"Ġcomplete":6870,"'--'":6871,"releases":6872,"Ġcarriage":6873,"Ġearlier":6874,"Ġsoftspace":6875,"\").":6876,"\">{":6877,"*$'":6878,"256":6879,"700":6880,">/":6881,"Autodetector":6882,"Critical":6883,"Dns":6884,"ETAG":6885,"From":6886,"Hig":6887,"HIN":6888,"Migration":6889,"OID":6890,"OINTER":6891,"Pattern":6892,"RawPostDataException":6893,"SY":6894,"Sta":6895,"STE":6896,"VOID":6897,"\\'":6898,"_',":6899,"atime":6900,"atively":6901,"ached":6902,"bar":6903,"foo":6904,"fHandler":6905,"gn":6906,"graph":6907,"ms":6908,"my":6909,"nTo":6910,"sile":6911,"tart":6912,"tHIN":6913,"xb":6914,"ymo":6915,"you":6916,"ĠEn":6917,"Ġ#-#-":6918,"ĠRLock":6919,"Ġsting":6920,"Ġimp":6921,"restart":6922,"onymo":6923,"met":6924,"oring":6925,"orking":6926,"det":6927,"Ġcor":6928,"Ġclosed":6929,"Ġworking":6930,"security":6931,"mentError":6932,"union":6933,"lations":6934,"anize":6935,"anage":6936,"anonymo":6937,"mpt":6938,"rnel":6939,"Ġdummy":6940,"Ġinstal":6941,"tring":6942,"Ġsubwidgets":6943,"thods":6944,"Ġconnected":6945,"Ġstrfunc":6946,"Ġstrign":6947,"ill":6948,"Ġmask":6949,"Ġmanage":6950,"italize":6951,"argparse":6952,"Ġ\"(%":6953,"Ġnamelist":6954,"Ġunparsed":6955,"jectSta":6956,"ĠFound":6957,"Ġhum":6958,"Ġhits":6959,"Ġhref":6960,"mptyPage":6961,"Ġbasetype":6962,"Ġbasehttp":6963,"ash":6964,"cogn":6965,"quash":6966,"ENCE":6967,"ĠData":6968,"ĠDummy":6969,"ĠDJANGO":6970,"Extrac":6971,"Ġprompt":6972,"ĠCached":6973,"endblock":6974,"INITIAL":6975,"ignoring":6976,"ionError":6977,"ORDER":6978,"ĠBOM":6979,"Ġrendering":6980,"ĠInclude":6981,"ĠInteractive":6982,"ĠInMem":6983,"ĠInstalling":6984,"RefHandler":6985,"LEMENT":6986,"conflicts":6987,"ĠĠĠĠĠĠĠĠĠĠĠĠĠĠĠĠĠĠĠĠĠĠĠĠĠĠĠĠĠĠĠĠĠĠĠĠĠĠ":6988,"Ġpreform":6989,"Ġmodules":6990,"Ġrbp":6991,"ĠBaseArchive":6992,"itervalues":6993,"ĠIs":6994,"RELOADER":6995,"Divis":6996,"ĠInvalidCache":6997,"CKS":6998,"ATORS":6999,"ĠUnion":7000,"doctype":7001,"Ġkind":7002,"Ġlocalpart":7003,"ĠEmptyPage":7004,"InputStreamExhausted":7005,"Ġtypecast":7006,"ĠPOINTER":7007,"ĠPVOID":7008,"based":7009,"basehttp":7010,"Ġmakemigrations":7011,"oryUploadedFile":7012,"BaseForm":7013,"BaseFormSet":7014,"Debug":7015,"Unicode":7016,"stemp":7017,"ĠRUN":7018,"anaged":7019,"transfer":7020,"Ġwidthratio":7021,"ĠOPER":7022,"ĠStringIO":7023,"Ġbegins":7024,"ĠRegexURL":7025,"UNION":7026,"Ġmetavar":7027,"ĠURLNode":7028,"iguous":7029,"Conflicting":7030,"serious":7031,"ĠDjangoRun":7032,"ĠCommandParser":7033,"Signal":7034,"sider":7035,"extends":7036,"HttpResponseNot":7037,"ILENCE":7038,"Ġsizeof":7039,"Ġunderscore":7040,"vironmentError":7041,"abspath":7042,"eroDivis":7043,").\\":7044,"Ġsio":7045,"Ġcapitalize":7046,"off":7047,"Ġ'\"\\\\":7048,"Ġ'^[_":7049,"ĠpicklePro":7050,"BackendError":7051,"ternalEntity":7052,"Info":7053,"Ġalternatively":7054,"TOTAL":7055,"Ġ1000":7056,"Ġguess":7057,"Ġzeros":7058,"Ġremoving":7059,"CHECKS":7060,"sysrandom":7061,"Media":7062,"Methods":7063,"Ġincludes":7064,"Ġtmpdir":7065,"'^[_":7066,"ĠConsole":7067,"ĠConsider":7068,"djcache":7069,"ĠMigrationAutodetector":7070,"systemrestart":7071,"Ġsyms":7072,"serializedObject":7073,"ĠPythonDeserializer":7074,"parsedEntityDeclHandler":7075,"primary":7076,"dummy":7077,"ĠCacheEntry":7078,"Separate":7079,"#-#-#":7080,"connect":7081,"Doctype":7082,"Offset":7083,"ĠNameError":7084,"={})\"":7085,"={})\".":7086,"potfiles":7087,"ĠSafeMIMEMultipart":7088,"MultiPartParserError":7089,"ithNode":7090,"Ġfetchone":7091,"Ġmade":7092,"ĠSETTINGS":7093,"ĠZeroDivis":7094,"ĠProjectSta":7095,"CheckMessage":7096,"Ġgetcw":7097,"ĠGeneratorExit":7098,"DnsName":7099,"ETAGS":7100,"High":7101,"MigrationQuestioner":7102,"SYSTE":7103,"myproject":7104,"silence":7105,"tartDoctype":7106,"tHINT":7107,"ĠEnvironmentError":7108,"Ġ#-#-#-#-#":7109,"Ġimported":7110,"anonymous":7111,"Ġinstallation":7112,"Ġhumanize":7113,"cognized":7114,"ĠDummyCache":7115,"Extracting":7116,"ĠCachedDnsName":7117,"ĠIncludeNode":7118,"ĠInteractiveMigrationQuestioner":7119,"ĠInMemoryUploadedFile":7120,"ĠInvalidCacheBackendError":7121,"ĠOPERATORS":7122,"ĠRegexURLPattern":7123,"ĠDjangoRuntimeWarning":7124,"ILENCED":7125,"ĠpickleProtocol":7126,"ternalEntityRefHandler":7127,"ĠConsoleEmailBackend":7128,"ĠZeroDivisionError":7129,"ĠProjectState":7130,"SYSTEM":7131,"tartDoctypeDeclHandler":7132,"\".'":7133,"'d":7134,"AF":7135,"Au":7136,"CO":7137,"Del":7138,"ELEMENT":7139,"between":7140,"bcc":7141,"eval":7142,"nti":7143,"sup":7144,"ured":7145,"Ġar":7146,"tell":7147,"recipient":7148,"thenti":7149,"Ġrename":7150,"Ġthese":7151,"Ġ('":7152,"session":7153,"Ġnpath":7154,"Ġ'`":7155,"inger":7156,"erbatim":7157,"ĠNOTI":7158,"Ġstrig":7159,"getvalue":7160,"getLogger":7161,"Ġ\";\"":7162,"concrete":7163,"Ġutil":7164,"keyOrder":7165,"ĠkeyOrder":7166,"ĠgetLogger":7167,"ĠVerbatim":7168,"Ġobtained":7169,"Ġbasename":7170,"comb":7171,"Ġinstances":7172,"Ġspaces":7173,"Ġthree":7174,"ĠSerializer":7175,"ĠSinger":7176,"ORY":7177,"ĠAF":7178,"locks":7179,"Ġcontainsed":7180,"ssionMiddleware":7181,"ĠBaseHandler":7182,"Ġalone":7183,"prog":7184,"spaces":7185,"cationMiddleware":7186,"configured":7187,"basename":7188,"TICE":7189,"NOTICE":7190,"ports":7191,"msgid":7192,"mapping":7193,"RegexValidator":7194,"chunks":7195,"MessageMiddleware":7196,"Ġinvert":7197,"Ġcombine":7198,"SIGNING":7199,"conditional":7200,"Ġbinary":7201,"SessionMiddleware":7202,"rupted":7203,"ĠSIGNING":7204,"Ġ':?.!'":7205,"Ġ':?.!'.":7206,"Ġdictionaries":7207,"Ġcorrupted":7208,"Authenti":7209,"Delete":7210,"supports":7211,"recipients":7212,"sessions":7213,"ĠNOTICE":7214,"Ġstrigs":7215,"ĠVerbatimNode":7216,"combine":7217,"AuthenticationMiddleware":7218,").\"":7219,"-'":7220,".%(":7221,":|":7222,"AI":7223,"BAT":7224,"CM":7225,"COM":7226,"DR":7227,"Erro":7228,"Event":7229,"FROM":7230,"GT":7231,"Just":7232,"MORY":7233,"Op":7234,"Spec":7235,"Stop":7236,"TOU":7237,"WAI":7238,"ZONE":7239,"[:|":7240,"]\".":7241,"``":7242,"aul":7243,"atural":7244,"bra":7245,"bom":7246,"bkd":7247,"cMem":7248,"crypto":7249,"ctring":7250,"ech":7251,"emet":7252,"flock":7253,"gz":7254,"gor":7255,"gue":7256,"god":7257,"ife":7258,"ipython":7259,"modified":7260,"mdb":7261,"martif":7262,"nch":7263,"noo":7264,"npgettext":7265,"ould":7266,"sal":7267,"sleep":7268,"smartif":7269,"tval":7270,"ula":7271,"uch":7272,"umen":7273,"xgettext":7274,"xFF":7275,"xistent":7276,"zed":7277,"Ġsleep":7278,"Ġil":7279,"temen":7280,"reader":7281,"retval":7282,"Ġfit":7283,"Ġflock":7284,"alone":7285,"tized":7286,"Ġcrypto":7287,"Ġreader":7288,"Ġremin":7289,"incr":7290,"Ġwould":7291,"Ġargume":7292,"Ġargumen":7293,"arno":7294,"vale":7295,"latable":7296,"latized":7297,"Ġev":7298,"Ġnatural":7299,"Ġtouch":7300,"Ġbreaks":7301,"Ġpid":7302,"Ġmes":7303,"Ġmean":7304,"ĠTABLE":7305,"Ġexpecting":7306,"login":7307,"Ġ\".":7308,"Ġelemet":7309,"ceptable":7310,"pawn":7311,"Ġuniver":7312,"ĠFFF":7313,"Ġhad":7314,"Ġdefaultfilters":7315,"dic":7316,"dio":7317,"andNode":7318,"',)?":7319,"Included":7320,"Ġlogin":7321,"Ġchmod":7322,"noargs":7323,"notation":7324,"noinput":7325,"Ġwhat":7326,"Ġwhose":7327,"ĠTemplateCommand":7328,"ExtendsNode":7329,"Ġupda":7330,"ĠSorted":7331,"Ġproperly":7332,"ĠCRE":7333,"endblocks":7334,"starttls":7335,"Ġgraph":7336,"partial":7337,"Ġpathsep":7338,"Ġentity":7339,"Ġnewretval":7340,"Ġendblock":7341,"Ġdictvale":7342,"Ġstarttls":7343,"Return":7344,"ĠvalidTemplateLibrary":7345,"dds":7346,"ĠAdds":7347,"Ġmsgmerge":7348,"Ġmsgattrib":7349,"Ġpresent":7350,"Ġdoctring":7351,"Ġrstrip":7352,"pathsep":7353,"Ġ'_%":7354,"ĠBaseCookie":7355,"Ġmaximal":7356,"iterkeys":7357,"Ġalgor":7358,"Ġrespective":7359,"ĠLea":7360,"Ġaren":7361,"REMO":7362,"Enable":7363,"Ġextends":7364,"ValidationError":7365,"ystemen":7366,"defaul":7367,"Ġverify":7368,"copying":7369,"Ġseparation":7370,"subwidgets":7371,"MEMORY":7372,"filesystemen":7373,"Ġrole":7374,"NODE":7375,"nonexistent":7376,"Ġsmartif":7377,"plus":7378,"]):'":7379,"])[:|":7380,"CHUN":7381,"ĠGot":7382,"Unable":7383,"ADDR":7384,"Ġ/>\"":7385,"Ġ/>\",":7386,"Ġluhn":7387,"Ġ'__'":7388,"FileOperation":7389,"tencoding":7390,"Ġexecutable":7391,"Ġfloor":7392,"HEXT":7393,"Ġfixing":7394,"Ġfixtures":7395,"Ġdispatch":7396,"Ġexecuting":7397,"ĠExisting":7398,"HttpResponseBadRequest":7399,"msgmerge":7400,"msgattrib":7401,"Ġtablenames":7402,"Ġemails":7403,"Ġconcatenation":7404,"Ġcalcula":7405,"Ġ'^'":7406,"Ġ'^',":7407,"ĠLocMem":7408,"IPS":7409,"Ġactually":7410,"Ġacceptable":7411,"completer":7412,"...\\":7413,"handles":7414,"EXE":7415,"dispatch":7416,"COLORS":7417,"ĠMultipleChoiceField":7418,"ĠSuspiciousFileOperation":7419,"Ġmethgod":7420,"unpacked":7421,"PATHEXT":7422,"ĠNullBooleanField":7423,"ĠDefusedExpatParser":7424,"Ġadmin":7425,"Ġmicroseconds":7426,"ignorenonexistent":7427,"executable":7428,"ToOneRel":7429,"Ġpotfiles":7430,"BIDI":7431,"fds":7432,"ĠContents":7433,"templatized":7434,"Ġrenderer":7435,"indentation":7436,"ĠSystemExit":7437,"Renderer":7438,"endifchanged":7439,"shells":7440,"Ġ'%%'":7441,"Ġ'%%',":7442,"ĠSafeMIMEText":7443,"ithm":7444,"Ġmaking":7445,"Ġcrate":7446,"Ġcrated":7447,"uniq":7448,"unicate":7449,"Ġcovert":7450,"Ġcoverted":7451,"()!\"":7452,"()!\".":7453,"Create":7454,"bidi":7455,"UnicodeDecodeError":7456,"Ġ('%(":7457,"CMD":7458,"GTTOU":7459,"Specify":7460,"StopUpload":7461,"WAIT":7462,"brace":7463,"bkdf":7464,"echo":7465,"guess":7466,"ifequal":7467,"noop":7468,"xFFFF":7469,"Ġfitst":7470,"Ġreminder":7471,"arnoptions":7472,"latableFile":7473,"Ġelemetns":7474,"pawnve":7475,"Ġuniversal":7476,"ĠFFFF":7477,"Ġupdating":7478,"ĠSortedDict":7479,"ĠCREATE":7480,"Ġalgorithm":7481,"ĠLeaf":7482,"REMOTE":7483,"defaultencoding":7484,"filesystemencoding":7485,"])[:|]'":7486,"CHUNK":7487,"Ġcalculating":7488,"ĠLocMemCache":7489,").\".":7490,"=',":7491,"AppCommand":7492,"So":7493,"cu":7494,"ctime":7495,"llying":7496,"nverter":7497,"qou":7498,"rindex":7499,"rmtree":7500,"uct":7501,"uction":7502,"writable":7503,"}>'":7504,"Ġquit":7505,"Ġqou":7506,"this":7507,"Ġaro":7508,"recursive":7509,"Ġfif":7510,"Ġfuction":7511,"orphans":7512,"section":7513,"secu":7514,"unlock":7515,"Ġetr":7516,"Ġ'=',":7517,"Ġdefalt":7518,"Ġpbkdf":7519,"Ġsubdirectory":7520,"Ġconsecu":7521,"Ġstruct":7522,"Ġmy":7523,"Ġmanaged":7524,"ittest":7525,"Ġfromtimestamp":7526,"Ġ26":7527,"Ġutime":7528,"Ġunittest":7529,"Ġhe":7530,"Ġcotained":7531,"Ġapllying":7532,"tagtype":7533,"ugment":7534,"ĠSSL":7535,"ensure":7536,"Ġge":7537,"Ġsixth":7538,"ops":7539,"Ġjoint":7540,"Ġadding":7541,"Ġrindex":7542,"Ġrfind":7543,"ĠBaseCO":7544,"nodeName":7545,"Ġsplitting":7546,"problem":7547,"probably":7548,"adding":7549,"Ġcopymode":7550,"configure":7551,"copymode":7552,"rfind":7553,"LibraryValueNotFoundException":7554,"widgetchoices":7555,"ĠLibraryValueNotFoundException":7556,"DeserializationError":7557,"DeserializedObject":7558,"Ġcompose":7559,"Ġgenerate":7560,"beha":7561,"because":7562,"Ġpoints":7563,"Ġfixer":7564,"Ġ\"\\\\\",":7565,"ĠIOErro":7566,"BadHeaderError":7567,"SSLError":7568,"://',":7569,"MergeDict":7570,"CACHES":7571,"ĠSTATIC":7572,"hibit":7573,"Ġtzinfo":7574,"SITE":7575,"Ġ\"---------\".":7576,"SMTPServerDisconnected":7577,"ĠSMTPServerDisconnected":7578,"ĠFileBaseCache":7579,"ĠSITE":7580,"Ġbehaviors":7581,"Ġintersection":7582,"###":7583,"Ġmkdir":7584,"Ġgetcwd":7585,"Ġarugment":7586,"Ġargumens":7587,"Some":7588,"Ġqoutes":7589,"Ġaround":7590,"Ġetries":7591,"Ġconsecutive":7592,"Ġunittests":7593,"ĠSSLError":7594,"ĠBaseCOnverter":7595,"behaviors":7596,"\"{":7597,"\">%(":7598,"#.":7599,"'[^'":7600,"'-'":7601,"(*":7602,"((?:":7603,")--":7604,".*":7605,"59":7606,"66":7607,"88":7608,"9200":7609,":\"":7610,":,":7611,"?\".":7612,"BE":7613,"BOM":7614,"Cc":7615,"Current":7616,"Clear":7617,"COOKIE":7618,"Custom":7619,"CRITICAL":7620,"DJANGO":7621,"GATE":7622,"IW":7623,"JsonResponse":7624,"Literal":7625,"Mal":7626,"Manager":7627,"MODIF":7628,"Po":7629,"Pointer":7630,"Ra":7631,"Raw":7632,"SILENCED":7633,"StartDoctypeDeclHandler":7634,"Tri":7635,"TTE":7636,"Writer":7637,"WithNode":7638,"]\",":7639,"bz":7640,"biguous":7641,"ef":7642,"eg":7643,"eet":7644,"eil":7645,"ewer":7646,"fall":7647,"hEvent":7648,"kstemp":7649,"luhn":7650,"lcompleter":7651,"mkstemp":7652,"nect":7653,"nly":7654,"ngettext":7655,"oke":7656,"point":7657,"sted":7658,"spaceless":7659,"squash":7660,"sReturn":7661,"ugettext":7662,"voke":7663,"wNode":7664,"xef":7665,"|[^'":7666,"Ġ#":7667,"Ġ^":7668,"Ġzone":7669,"ĠEntityDeclHandler":7670,"ĠENGINE":7671,"thig":7672,"Ġamb":7673,"Ġssi":7674,"Ġspaceless":7675,"Ġsquash":7676,"rece":7677,"ression":7678,"relation":7679,"recognized":7680,"med":7681,"Ġfed":7682,"Ġfive":7683,"Ġfav":7684,"Ġfewer":7685,"deserializer":7686,"detect":7687,"Ġceil":7688,"Ġrefo":7689,"Ġrecognized":7690,"ntype":7691,"sen":7692,"Ġtb":7693,"stall":7694,"Ġargtypes":7695,"tionParser":7696,"unresolved":7697,"unparsed":7698,"unifunc":7699,"untimeWarning":7700,"Ġdepend":7701,"Ġdetect":7702,"Ġdestination":7703,"uments":7704,"latize":7705,"Ġisn":7706,"andint":7707,"Ġifchanged":7708,"kernel":7709,"Ġinstall":7710,"Ġbra":7711,"Ġblank":7712,"ssi":7713,"Ġpull":7714,"Ġsubprocess":7715,"__\"":7716,"root":7717,"Ġnothig":7718,"Ġconnect":7719,"ĠTempor":7720,"Ġmn":7721,"Ġmang":7722,"Ġexact":7723,"Ġdefined":7724,"getsize":7725,"argtypes":7726,"Ġ\"/":7727,"Ġ\";":7728,"Ġ\"@":7729,"Ġ\"__":7730,"Ġ\"?\"":7731,"Ġ\"#.":7732,"Ġ\"?\".":7733,"listdir":7734,"Ġnamemap":7735,"Ġuntil":7736,"Ġunresolved":7737,"nameMethods":7738,"cations":7739,"ram":7740,"aguments":7741,"Ġgetsize":7742,"Ġradio":7743,"ĠFOR":7744,"ĠFailed":7745,"ĠTrans":7746,"Ġintger":7747,"templatetag":7748,"ambiguous":7749,"external":7750,"existent":7751,"ascript":7752,"Ġregroup":7753,"Integer":7754,"Ġlocations":7755,"questioner":7756,"ady":7757,"adNode":7758,"ĠnodeName":7759,"ckets":7760,"ĠDRO":7761,"Ġthrow":7762,"ĠTemplateLiteral":7763,"ExternalEntityRefHandler":7764,"atchManager":7765,"ĠServer":7766,"ĠSpaceless":7767,"ĠSILENCED":7768,"ĠStartDoctypeDeclHandler":7769,"ĠCOUNT":7770,"ĠCreating":7771,"endfilter":7772,"endautoescape":7773,"endfor":7774,"endwith":7775,"endverbatim":7776,"endcomment":7777,"endspaceless":7778,"enderer":7779,"Ġdatatuple":7780,"INSER":7781,"preted":7782,"setattr":7783,"Ġoutfile":7784,"Ġsefl":7785,"optional":7786,"ĠHalt":7787,"ĠMust":7788,"ĠMIME":7789,"Ġdictrepr":7790,"Ready":7791,"Ġ{}'":7792,"ific":7793,"ĠUnsupported":7794,"decr":7795,"ddl":7796,"ĠApp":7797,"fixtures":7798,"obsole":7799,"Ġformatdate":7800,"ĠĠĠĠĠĠĠĠĠĠĠĠĠĠĠĠĠĠĠĠĠĠĠĠĠĠĠĠĠĠĠĠĠĠĠ":7801,"ĠĠĠĠĠĠĠĠĠĠĠĠĠĠĠĠĠĠĠĠĠĠĠĠĠĠĠĠ":7802,"Ġmsgid":7803,"Ġinitialize":7804,"Ġtimeval":7805,"Ġrlcompleter":7806,"Ġrandint":7807,"Ġ'_'.\"":7808,"NotAn":7809,"NotReady":7810,"002":7811,"ternatives":7812,"CKAGE":7813,"ĠRequest":7814,"ĠRenameMethods":7815,"Ġitervalues":7816,"Ġiterkeys":7817,"ĠUnparsedEntityDeclHandler":7818,"ĠUnrecognized":7819,"Ġkwds":7820,".\"'":7821,"dom":7822,"down":7823,"Ġpoped":7824,"Ġknow":7825,"formed":7826,"rendering":7827,"DEX":7828,"pythonpath":7829,"Ġidhost":7830,"Ġassigned":7831,"Ġseparating":7832,"urlresolvers":7833,"stylesh":7834,"Ġtransform":7835,"Ġtranslations":7836,"ĠPC":7837,"baseError":7838,"Ġhaven":7839,"FORCE":7840,"Ġtargets":7841,"NOTATION":7842,"Format":7843,"cursor":7844,"ĠWithNode":7845,"Ġwrapper":7846,"Ġsavepoint":7847,"()`":7848,"])*?":7849,"CHO":7850,"Ġtopdown":7851,"ATTRIB":7852,"UnreadablePostError":7853,"Unused":7854,"UnparsedEntityDeclHandler":7855,"ĠModelBase":7856,"ĠModelSignal":7857,"ĠRa":7858,"ĠRuntimeWarning":7859,"ĠRenderer":7860,"UPDATE":7861,"translations":7862,"ĠChange":7863,"Ġ/>%(":7864,"ĠObject":7865,"ĠOptions":7866,"Ġsupply":7867,"PROPA":7868,"Ġ(%%":7869,"Ġspecific":7870,"ĠNotFound":7871,"ĠEmailMessage":7872,"ĠEmailMulti":7873,"uploadhandler":7874,"Alternatives":7875,"WARNING":7876,"ĠFileUploadHandler":7877,"ĠExpecting":7878,"ĠExternalEntityRefHandler":7879,"registry":7880,"HttpResponseRedirect":7881,"HttpResponseForbidden":7882,"HttpResponseGone":7883,"HttpResponseServerError":7884,"HttpResponsePermanentRedirect":7885,"HttpResponseNotFound":7886,"Ġconcatenated":7887,"ModelBase":7888,"ModelSignal":7889,"=\"%(":7890,"Ġtemplatize":7891,"statements":7892,"ANNOTATION":7893,"ĠINTO":7894,"ĠINDEX":7895,"ĠLoadNode":7896,"StreamingHttpResponse":7897,"Encoder":7898,"Ġ259200":7899,"JSONEncoder":7900,"ĠNowNode":7901,"Ġaccessed":7902,"Ġdatabases":7903,"processing":7904,"EXCEP":7905,"Ġcycles":7906,"Change":7907,"USR":7908,"Ġenvironment":7909,"Ġfollowlink":7910,"ĠMultipleObject":7911,"databases":7912,"dimension":7913,"ĠJSONEncoder":7914,"Named":7915,"Ġcolorize":7916,"]*'|[^'":7917,"Ġkernel":7918,"otifyWrapper":7919,"Ġdigestmod":7920,"Ġcombo":7921,"Subject":7922,"Ġutcdate":7923,"Tags":7924,"ĠMigrationQuestioner":7925,"ĠMigrationWriter":7926,"Ġsynch":7927,"Ġcouldn":7928,"ArchiveFormat":7929,"SIGTTOU":7930,"Ġsamefile":7931,"}\"></":7932,"ĠSuspiciousMultipartF":7933,"ManyToMany":7934,"Ġsuffixes":7935,"Ġmodulo":7936,"See":7937,"Second":7938,"restype":7939,"ĠBaseMemcachedCacheMethods":7940,"PACKAGE":7941,"booleanfield":7942,"LOCATION":7943,"djangoprojects":7944,"javascript":7945,"ĠinitLock":7946,"ĠBlockContext":7947,"shell":7948,"symlink":7949,"optgroup":7950,"RegistryNotReady":7951,"ĠManyToManyRel":7952,"Ġreduced":7953,"Ġprogram":7954,"Ġrestype":7955,"InternalHigh":7956,"Ġinterpreted":7957,"Ġsymlinks":7958,"Creates":7959,"ĠPageNotAn":7960,"Ġmkstemp":7961,"xbb":7962,"xbf":7963,"ĠDatabaseCache":7964,"ĠDatabaseError":7965,"HttpResponseNotModified":7966,"HttpResponseNotAllowed":7967,"OffsetHigh":7968,"silenced":7969,"Ġ#-#-#-#-#\\":7970,"ĠSerializerDoesNotExist":7971,"Optional":7972,"Ġilst":7973,"'[^']*'|[^'":7974,"(*)":7975,"((?:'[^']*'|[^'":7976,")--.*":7977,"8859":7978,"Currently":7979,"IWUSR":7980,"Malformed":7981,"MODIFY":7982,"Pocket":7983,"Raise":7984,"Tried":7985,"egg":7986,"fallback":7987,"sReturned":7988,"voked":7989,"Ġambiguous":7990,"receive":7991,"Ġfavor":7992,"ntypes":7993,"Ġbrackets":7994,"Ġpulldom":7995,"ĠTemporary":7996,"Ġmangle":7997,"Ġexactly":7998,"ĠFORCE":7999,"ĠTranslatableFile":8000,"ĠDROP":8001,"ĠSpacelessNode":8002,"INSERT":8003,"ĠMIMEBase":8004,"Ġdictreprs":8005,"ĠUnsupportedOperation":8006,"ĠAppRegistryNotReady":8007,"obsolete":8008,"ĠRenameMethodsBase":8009,"ĠUnrecognizedArchiveFormat":8010,"stylesheet":8011,"])*?)--.*":8012,"ĠRendererMixin":8013,"ĠObjectDoesNotExist":8014,"PROPAGATE":8015,"ĠEmailMultiAlternatives":8016,"Ġ2592000":8017,"EXCEPTIONS":8018,"Ġfollowlinks":8019,"ĠMultipleObjectsReturned":8020,"ManyToManyRel":8021,"ĠPageNotAnInteger":8022,"((?:'[^']*'|[^'])*?)--.*":8023,"'*":8024,"Generator":8025,"Ver":8026,"aine":8027,"fn":8028,"fy":8029,"fetch":8030,"glob":8031,"hit":8032,"kill":8033,"managed":8034,"sort":8035,"sample":8036,"spawnve":8037,"warnoptions":8038,"xreadlines":8039,"yn":8040,"Ġqu":8041,"Ġqueries":8042,"Ġsself":8043,"Ġspawnve":8044,"return":8045,"repl":8046,"resent":8047,"inter":8048,"Ġwe":8049,"Ġwarnoptions":8050,"strerror":8051,"lare":8052,"Ġomit":8053,"Ġreturncode":8054,"Ġdta":8055,"Ġdump":8056,"Ġinhibit":8057,"truncate":8058,"Ġbwidget":8059,"Ġresid":8060,"lify":8061,"ameters":8062,"Ġmigr":8063,"getfqdn":8064,"getdefaultencoding":8065,"getfilesystemencoding":8066,"Ġ\"(\"":8067,"Ġ\"###":8068,"Ġ%=":8069,"Ġgetfqdn":8070,"Ġgetdefaultencoding":8071,"Ġgetfilesystemencoding":8072,"Ġheight":8073,"Ġdefaultdict":8074,"Ġdeclare":8075,"Ġregard":8076,"plain":8077,"Ġ*=":8078,"ĠnodeType":8079,"ĠDid":8080,"errorhandle":8081,"ĠhasAttribute":8082,"ĠDeserializedObject":8083,"TACH":8084,"mass":8085,"access":8086,"LETTE":8087,"ATTACH":8088,"ĠAD":8089,"ĠAre":8090,"ĠArchive":8091,"Ġmsguniq":8092,"Ġinitialized":8093,"readinto":8094,"nodeType":8095,"Ġalso":8096,"ĠLANGUAGE":8097,"ĠexpandNode":8098,"Ġkill":8099,"KeyWarning":8100,"matchcase":8101,"closevariable":8102,"closecomment":8103,"closebrace":8104,"Ġcommunicate":8105,"TERNAL":8106,"hasAttribute":8107,"ĠWhit":8108,"minimal":8109,"openvariable":8110,"opencomment":8111,"openbrace":8112,"Ġviews":8113,"ĠModelFile":8114,"Ġsliced":8115,"expandNode":8116,"writelines":8117,"msguniq":8118,"ĠINTERNAL":8119,"managers":8120,"complex":8121,"Ġ|=":8122,"Ġ'(',":8123,"Ġcountaine":8124,"Ġ'*%":8125,"Ġ'*',":8126,"ĠOrder":8127,"ĠCACHES":8128,"ArchiveException":8129,"normal":8130,"communicate":8131,"ManyToOneRel":8132,"ĠCacheKeyWarning":8133,"softspace":8134,"Ġdont":8135,"PALETTE":8136,"ĠManyToOneRel":8137,"Ġcomplex":8138,"ĠZip":8139,"ĠProcess":8140,"admins":8141,"Ġfnmatchcase":8142,"Ġgetcwdu":8143,"',)?\"":8144,"',)?\",":8145,"Ġfifth":8146,"'*',":8147,"Verbosity":8148,"fnmatchcase":8149,"fetchone":8150,"returncode":8151,"Ġomittable":8152,"Ġresidue":8153,"Ġregardless":8154,"ATTACHMENT":8155,"ĠArchiveException":8156,"ĠLANGUAGES":8157,"ĠModelFiled":8158,"\"\\":8159,"'>":8160,").__":8161,"-',":8162,"/.":8163,"22":8164,"822":8165,":\",":8166,"=''":8167,"=-'":8168,"=-',":8169,"@%":8170,"At":8171,"Av":8172,"ATA":8173,"AME":8174,"Auto":8175,"ANOW":8176,"Args":8177,"BIN":8178,"Bytes":8179,"CS":8180,"Cannot":8181,"DRE":8182,"DATA":8183,"EE":8184,"ECHO":8185,"Fix":8186,"GR":8187,"ICON":8188,"IGN":8189,"ISO":8190,"IGR":8191,"More":8192,"MCACHE":8193,"Only":8194,"Python":8195,"Paginator":8196,"RON":8197,"Random":8198,"String":8199,"Will":8200,"WatchManager":8201,"WRON":8202,"Yes":8203,"\\',":8204,"ace":8205,"assign":8206,"atures":8207,"autodetector":8208,"bor":8209,"cmd":8210,"din":8211,"dated":8212,"dklen":8213,"flat":8214,"face":8215,"gal":8216,"gen":8217,"ggin":8218,"ite":8219,"ide":8220,"lt":8221,"lse":8222,"lone":8223,"lbp":8224,"mine":8225,"mop":8226,"mber":8227,"mdir":8228,"mask":8229,"nType":8230,"nud":8231,"ptionParser":8232,"ron":8233,"scal":8234,"skip":8235,"supported":8236,"tb":8237,"tree":8238,"tgz":8239,"utu":8240,"udo":8241,"wt":8242,"wister":8243,"ward":8244,"walk":8245,"yN":8246,"yam":8247,"yload":8248,"zip":8249,"}>\\":8250,"~/.":8251,"Ġli":8252,"Ġvi":8253,"ĠAT":8254,"ĠQuery":8255,"ĠEncode":8256,"Ġlit":8257,"Ġunction":8258,"Ġ###":8259,"Ġquestioner":8260,"Ġabo":8261,"Ġstop":8262,"Ġipython":8263,"Ġimop":8264,"tequal":8265,"rela":8266,"memcache":8267,"org":8268,"orage":8269,"tition":8270,"Ġclone":8271,"Ġreque":8272,"Ġrecord":8273,"Ġreserve":8274,"ntries":8275,"inline":8276,"include":8277,"instead":8278,"inner":8279,"inhibit":8280,"invoked":8281,"rgument":8282,"tue":8283,"see":8284,"seed":8285,"seded":8286,"seudo":8287,"Ġtc":8288,"stra":8289,"stop":8290,"storage":8291,"legal":8292,"arrange":8293,"Ġwish":8294,"Ġwintypes":8295,"tionError":8296,"ungettext":8297,"Ġdeter":8298,"Ġdeserialize":8299,"Ġdependencies":8300,"Ġet":8301,"ceed":8302,"Ġforth":8303,"Ġforbid":8304,"Ġnodel":8305,"Ġ'>":8306,"Ġ'~/.":8307,"anry":8308,"Ġifno":8309,"Ġifequal":8310,"Ġoutu":8311,"ingly":8312,"ersen":8313,"Ġinset":8314,"Ġinstalling":8315,"Ġinvoked":8316,"Ġbig":8317,"Ġpseudo":8318,"Ġsubtra":8319,"Ġsubcommands":8320,"Ġmember":8321,"lien":8322,"Ġconsole":8323,"ĠNAME":8324,"ĠTwister":8325,"tab":8326,"Ġdefines":8327,"lower":8328,"Ġ\"$":8329,"Ġ\"',":8330,"Ġ\"]\"":8331,"Ġ\"``":8332,"Ġelntries":8333,"console":8334,"ortError":8335,"Ġumask":8336,"pack":8337,"payload":8338,"Ġunap":8339,"Ġunsu":8340,"namelist":8341,"few":8342,"ferent":8343,"features":8344,"Ġparameters":8345,"Ġgetstate":8346,"ĠFix":8347,"ĠFalling":8348,"Ġhalt":8349,"Ġhide":8350,"Ġlegacy":8351,"ĠVAL":8352,"atadd":8353,"Ġord":8354,"dioField":8355,"andrange":8356,"Ġformatadd":8357,"Ġappending":8358,"initLock":8359,"plan":8360,"Ġlocated":8361,"Ġ*'":8362,"Ġ*,":8363,"Ġbyes":8364,"irm":8365,"ĠTemplateResponse":8366,"Exec":8367,"ources":8368,"Ġupdated":8369,"ĠSyntaxError":8370,"ĠSEE":8371,"Ġconverting":8372,"Ġproceed":8373,"resses":8374,"resources":8375,"INotifyWrapper":8376,"STORAGE":8377,"Ġfirstof":8378,"partition":8379,"Ġparseadd":8380,"Ġoutside":8381,"Ġseed":8382,"Ġseem":8383,"ĠBM":8384,"Ġended":8385,"Nodes":8386,"Ġmatching":8387,"FieldRenderer":8388,"ĠIndent":8389,"ĠMark":8390,"ĠMersen":8391,"Ġjust":8392,"ATTER":8393,"ĠAmb":8394,"ĠAsser":8395,"ĠAbor":8396,"ĠArgument":8397,"ĠĠĠĠĠĠĠĠĠĠĠĠĠĠĠĠĠĠĠĠĠĠĠĠĠĠĠĠĠĠĠĠĠĠĠĠĠĠĠĠĠ":8398,"Ġrise":8399,"Ġrmdir":8400,"Ġsuperseded":8401,"Ġcontainig":8402,"ALL":8403,"Ġstatue":8404,"apply":8405,"Ġflag":8406,"100":8407,"1024":8408,"000":8409,"Ġva":8410,"ĠISO":8411,"Ġbeggin":8412,"sume":8413,"loaddata":8414,"Ġindexing":8415,"Ġindexes":8416,"clone":8417,"STARTUP":8418,"Ġiterated":8419,"mpleter":8420,"dopen":8421,"Ġatttribute":8422,"Ġxgettext":8423,"clob":8424,"ĠECHO":8425,"modelformset":8426,"OUTP":8427,"pythonrc":8428,"wintypes":8429,"Ġ\"%%":8430,"Ġlabeled":8431,"subcommand":8432,"delattr":8433,"cacheent":8434,"rfc":8435,"ĠPaginator":8436,"ĠPickle":8437,"ĠPATTER":8438,"closeblock":8439,"There":8440,"firstof":8441,"compression":8442,"ĠWatchManager":8443,"Ġmakes":8444,"BaseModel":8445,"BaseInlineFormSet":8446,"BaseModelForm":8447,"2002":8448,"XTURE":8449,"Ġcomponent":8450,"Ġcompression":8451,"AUTO":8452,"openblock":8453,"ĠMEMCACHE":8454,"Loading":8455,"LockFileEx":8456,"UnlockFileEx":8457,"Ġconflict":8458,"Ġconfirm":8459,"SetPaginator":8460,"Ġautocomplete":8461,"Ġ'__',":8462,"ĠOnly":8463,"ĠOptionParser":8464,"ityError":8465,"ĠWSGIRequest":8466,"wrapped":8467,"iguityError":8468,"Ġ``":8469,"TextField":8470,"Ġhandles":8471,"CacheEntry":8472,"URLValidator":8473,"Ġdisconnect":8474,"='__":8475,"Ġsense":8476,"Ġsqlmigrate":8477,"Ġsqlflush":8478,"original":8479,"SelectMultiple":8480,"ModelChoiceField":8481,"ModelMultipleChoiceField":8482,"Ġfails":8483,"ANSI":8484,"ANICON":8485,"ĠINotifyWrapper":8486,"ĠLock":8487,"Ġ250":8488,"PYTHON":8489,"Ġrepresen":8490,"startup":8491,"ĠNotifier":8492,"ĠNoArgs":8493,"Ġ100000":8494,"Ġaccept":8495,"ĠChoiceFieldRenderer":8496,"ĠMessage":8497,"...\",":8498,"Ġsendmail":8499,"istelse":8500,"Ġwasn":8501,"Ġoperation":8502,"utcfromtimestamp":8503,"EXCL":8504,"Note":8505,"Notifier":8506,"Ġdifferent":8507,"Ġ'('":8508,"Ġidentifier":8509,"Ġoverride":8510,"display":8511,"disconnect":8512,"deprecated":8513,"Ġ'|',":8514,"HEADING":8515,"migrated":8516,"COLOR":8517,"TranslatableFile":8518,"Problem":8519,"Ġ'*'.":8520,"sendmail":8521,"HEADERS":8522,"CREAT":8523,"ĠConsume":8524,"ĠCheckboxFieldRenderer":8525,"ĠCheckboxSelectMultiple":8526,"Ġutcfromtimestamp":8527,"ĠMigrationExec":8528,"PATHS":8529,"Ġsync":8530,"Ġsyncdb":8531,"Ġmodifying":8532,"Ġzipfile":8533,"tioanry":8534,"ĠContentFile":8535,"Ġ\"^((?:'[^']*'|[^'])*?)--.*":8536,"MPLETE":8537,"Ġaccessible":8538,"Byte":8539,"Element":8540,"}\"{":8541,"}\">'":8542,"tempted":8543,"hexlify":8544,"Ġdictioanry":8545,"Ġstarted":8546,"\"^((?:'[^']*'|[^'])*?)--.*":8547,"SECTION":8548,"Ġ&=":8549,"synch":8550,"Ġappears":8551,"ĠSafeMIMEMessage":8552,"ĠSIGTTOU":8553,"PickleError":8554,"Ġlogic":8555,"Disposition":8556,"Ġserialization":8557,"Checking":8558,"Ġdictionay":8559,"COMPLETE":8560,"Ġarrange":8561,"OptionParser":8562,"Ġillegal":8563,"dioSelect":8564,"Returns":8565,"Ġfift":8566,"666":8567,"Ġ^=":8568,"Ġsquashmigrations":8569,"Ġceiling":8570,"Ġ\"@\"":8571,"Ġ\"@',":8572,"ĠRadioField":8573,"ĠRadioSelect":8574,"Ġsynchron":8575,"symlinks":8576,"ĠTemporaryFileUploadHandler":8577,"ĠTemporaryUploadedFile":8578,"interface":8579,"Ġmigrated":8580,"ĠADDRE":8581,"ĠZipArchive":8582,"ĠProcessing":8583,"='')":8584,"Attempted":8585,"Available":8586,"AutoField":8587,"BINARY":8588,"CSANOW":8589,"IGRATE":8590,"WRONLY":8591,"assignment":8592,"flatten":8593,"scalar":8594,"wards":8595,"yaml":8596,"Ġlisted":8597,"Ġvia":8598,"ĠQuerySetPaginator":8599,"ĠEncoders":8600,"Ġ###\"":8601,"Ġabove":8602,"ĠimoportError":8603,"relational":8604,"Ġrequested":8605,"Ġreserved":8606,"inlineformset":8607,"stract":8608,"Ġdetermine":8609,"Ġnodelistelse":8610,"Ġifnotequal":8611,"Ġoutut":8612,"Ġsubtraction":8613,"Ġunapcked":8614,"Ġunsuitable":8615,"ĠFixUnicode":8616,"ĠVALUES":8617,"Ġformataddr":8618,"ĠSEEK":8619,"Ġparseaddr":8620,"Ġseemingly":8621,"ĠIndentationError":8622,"ĠMersenne":8623,"ĠAmbiguityError":8624,"ĠAssertionError":8625,"ĠAborting":8626,"ĠArgumentParser":8627,"Ġbeggining":8628,"OUTPUT":8629,"cacheentry":8630,"ĠPickleError":8631,"ĠPATTERN":8632,"BaseModelFormSet":8633,"ANSICON":8634,"PYTHONSTARTUP":8635,"Ġrepresented":8636,"ĠNoArgsCommand":8637,"ĠMigrationExecutor":8638,"Ġ\"^((?:'[^']*'|[^'])*?)--.*$\",":8639,"\"^((?:'[^']*'|[^'])*?)--.*$\"":8640,"ĠRadioFieldRenderer":8641,"ĠADDRESS":8642}